node {
  name: "global_step/Initializer/zeros"
  op: "Const"
  attr {
    key: "_class"
    value {
      list {
        s: "loc:@global_step"
      }
    }
  }
  attr {
    key: "_output_shapes"
    value {
      list {
        shape {
        }
      }
    }
  }
  attr {
    key: "dtype"
    value {
      type: DT_INT64
    }
  }
  attr {
    key: "value"
    value {
      tensor {
        dtype: DT_INT64
        tensor_shape {
        }
        int64_val: 0
      }
    }
  }
}
node {
  name: "global_step"
  op: "VariableV2"
  attr {
    key: "_class"
    value {
      list {
        s: "loc:@global_step"
      }
    }
  }
  attr {
    key: "_output_shapes"
    value {
      list {
        shape {
        }
      }
    }
  }
  attr {
    key: "container"
    value {
      s: ""
    }
  }
  attr {
    key: "dtype"
    value {
      type: DT_INT64
    }
  }
  attr {
    key: "shape"
    value {
      shape {
      }
    }
  }
  attr {
    key: "shared_name"
    value {
      s: ""
    }
  }
}
node {
  name: "global_step/Assign"
  op: "Assign"
  input: "global_step"
  input: "global_step/Initializer/zeros"
  attr {
    key: "T"
    value {
      type: DT_INT64
    }
  }
  attr {
    key: "_class"
    value {
      list {
        s: "loc:@global_step"
      }
    }
  }
  attr {
    key: "_output_shapes"
    value {
      list {
        shape {
        }
      }
    }
  }
  attr {
    key: "use_locking"
    value {
      b: true
    }
  }
  attr {
    key: "validate_shape"
    value {
      b: true
    }
  }
}
node {
  name: "global_step/read"
  op: "Identity"
  input: "global_step"
  attr {
    key: "T"
    value {
      type: DT_INT64
    }
  }
  attr {
    key: "_class"
    value {
      list {
        s: "loc:@global_step"
      }
    }
  }
  attr {
    key: "_output_shapes"
    value {
      list {
        shape {
        }
      }
    }
  }
}
node {
  name: "Const"
  op: "Const"
  attr {
    key: "_output_shapes"
    value {
      list {
        shape {
          dim {
            size: 2800
          }
          dim {
            size: 5
          }
        }
      }
    }
  }
  attr {
    key: "dtype"
    value {
      type: DT_FLOAT
    }
  }
  attr {
    key: "value"
    value {
      tensor {
        dtype: DT_FLOAT
        tensor_shape {
          dim {
            size: 2800
          }
          dim {
            size: 5
          }
        }
        tensor_content: "\000`\006E\000\240\006E\000p\007E\000`\010E\000\020\010E\000\240\006E\000p\007E\000`\010E\000\020\010E\000\220\010E\000p\007E\000`\010E\000\020\010E\000\220\010E\000\320\007E\000`\010E\000\020\010E\000\220\010E\000\320\007E\000`\007E\000\020\010E\000\220\010E\000\320\007E\000`\007E\000\200\006E\000\220\010E\000\320\007E\000`\007E\000\200\006E\000\000\006E\000\320\007E\000`\007E\000\200\006E\000\000\006E\000@\006E\000`\007E\000\200\006E\000\000\006E\000@\006E\000@\006E\000\200\006E\000\000\006E\000@\006E\000@\006E\000\240\005E\000\000\006E\000@\006E\000@\006E\000\240\005E\000\200\005E\000@\006E\000@\006E\000\240\005E\000\200\005E\000\260\006E\000@\006E\000\240\005E\000\200\005E\000\260\006E\000\240\005E\000\240\005E\000\200\005E\000\260\006E\000\240\005E\000 \006E\000\200\005E\000\260\006E\000\240\005E\000 \006E\000\300\005E\000\260\006E\000\240\005E\000 \006E\000\300\005E\000P\004E\000\240\005E\000 \006E\000\300\005E\000P\004E\000\240\002E\000 \006E\000\300\005E\000P\004E\000\240\002E\000 \003E\000\300\005E\000P\004E\000\240\002E\000 \003E\000p\002E\000P\004E\000\240\002E\000 \003E\000p\002E\000\000\003E\000\240\002E\000 \003E\000p\002E\000\000\003E\000\320\002E\000 \003E\000p\002E\000\000\003E\000\320\002E\000\320\005E\000p\002E\000\000\003E\000\320\002E\000\320\005E\000\300\006E\000\000\003E\000\320\002E\000\320\005E\000\300\006E\000\260\010E\000\320\002E\000\320\005E\000\300\006E\000\260\010E\000\360\nE\000\320\005E\000\300\006E\000\260\010E\000\360\nE\000P\017E\000\300\006E\000\260\010E\000\360\nE\000P\017E\000@\020E\000\260\010E\000\360\nE\000P\017E\000@\020E\000p\023E\000\360\nE\000P\017E\000@\020E\000p\023E\000`\021E\000P\017E\000@\020E\000p\023E\000`\021E\000`\027E\000@\020E\000p\023E\000`\021E\000`\027E\000@\032E\000p\023E\000`\021E\000`\027E\000@\032E\000\000 E\000`\021E\000`\027E\000@\032E\000\000 E\000p E\000`\027E\000@\032E\000\000 E\000p E\000\300\037E\000@\032E\000\000 E\000p E\000\300\037E\000\200!E\000\000 E\000p E\000\300\037E\000\200!E\000\260\035E\000p E\000\300\037E\000\200!E\000\260\035E\000`\036E\000\300\037E\000\200!E\000\260\035E\000`\036E\000\340\037E\000\200!E\000\260\035E\000`\036E\000\340\037E\000@#E\000\260\035E\000`\036E\000\340\037E\000@#E\000P)E\000`\036E\000\340\037E\000@#E\000P)E\000\020/E\000\340\037E\000@#E\000P)E\000\020/E\000p3E\000@#E\000P)E\000\020/E\000p3E\000p1E\000P)E\000\020/E\000p3E\000p1E\000`,E\000\020/E\000p3E\000p1E\000`,E\000\220)E\000p3E\000p1E\000`,E\000\220)E\000@$E\000p1E\000`,E\000\220)E\000@$E\000\320!E\000`,E\000\220)E\000@$E\000\320!E\0000%E\000\220)E\000@$E\000\320!E\0000%E\000p&E\000@$E\000\320!E\0000%E\000p&E\000 &E\000\320!E\0000%E\000p&E\000 &E\000 %E\0000%E\000p&E\000 &E\000 %E\000`$E\000p&E\000 &E\000 %E\000`$E\000\360&E\000 &E\000 %E\000`$E\000\360&E\000\220!E\000 %E\000`$E\000\360&E\000\220!E\000\020$E\000`$E\000\360&E\000\220!E\000\020$E\000\240#E\000\360&E\000\220!E\000\020$E\000\240#E\000\000%E\000\220!E\000\020$E\000\240#E\000\000%E\000\000\'E\000\020$E\000\240#E\000\000%E\000\000\'E\000\260$E\000\240#E\000\000%E\000\000\'E\000\260$E\000\260 E\000\000%E\000\000\'E\000\260$E\000\260 E\000\320 E\000\000\'E\000\260$E\000\260 E\000\320 E\000\240 E\000\260$E\000\260 E\000\320 E\000\240 E\000\200!E\000\260 E\000\320 E\000\240 E\000\200!E\000\200 E\000\320 E\000\240 E\000\200!E\000\200 E\000  E\000\240 E\000\200!E\000\200 E\000  E\000\320\"E\000\200!E\000\200 E\000  E\000\320\"E\000\360\'E\000\200 E\000  E\000\320\"E\000\360\'E\000\340\"E\000  E\000\320\"E\000\360\'E\000\340\"E\0000%E\000\320\"E\000\360\'E\000\340\"E\0000%E\000\260&E\000\360\'E\000\340\"E\0000%E\000\260&E\000\000%E\000\340\"E\0000%E\000\260&E\000\000%E\000\260#E\0000%E\000\260&E\000\000%E\000\260#E\000 #E\000\260&E\000\000%E\000\260#E\000 #E\000\000\"E\000\000%E\000\260#E\000 #E\000\000\"E\000@\"E\000\260#E\000 #E\000\000\"E\000@\"E\0000\"E\000 #E\000\000\"E\000@\"E\0000\"E\000\240!E\000\000\"E\000@\"E\0000\"E\000\240!E\000\320!E\000@\"E\0000\"E\000\240!E\000\320!E\0000\035E\0000\"E\000\240!E\000\320!E\0000\035E\000\340\035E\000\240!E\000\320!E\0000\035E\000\340\035E\000`\034E\000\320!E\0000\035E\000\340\035E\000`\034E\000\260\035E\0000\035E\000\340\035E\000`\034E\000\260\035E\000\360\035E\000\340\035E\000`\034E\000\260\035E\000\360\035E\000 \036E\000`\034E\000\260\035E\000\360\035E\000 \036E\000\000#E\000\260\035E\000\360\035E\000 \036E\000\000#E\000\260 E\000\360\035E\000 \036E\000\000#E\000\260 E\000\320!E\000 \036E\000\000#E\000\260 E\000\320!E\000\360\'E\000\000#E\000\260 E\000\320!E\000\360\'E\000@*E\000\260 E\000\320!E\000\360\'E\000@*E\000 *E\000\320!E\000\360\'E\000@*E\000 *E\000\200+E\000\360\'E\000@*E\000 *E\000\200+E\000p(E\000@*E\000 *E\000\200+E\000p(E\000\240(E\000 *E\000\200+E\000p(E\000\240(E\000\320\'E\000\200+E\000p(E\000\240(E\000\320\'E\000@.E\000p(E\000\240(E\000\320\'E\000@.E\000@+E\000\240(E\000\320\'E\000@.E\000@+E\000P*E\000\320\'E\000@.E\000@+E\000P*E\000\200)E\000@.E\000@+E\000P*E\000\200)E\000\340)E\000@+E\000P*E\000\200)E\000\340)E\000@)E\000P*E\000\200)E\000\340)E\000@)E\000\320(E\000\200)E\000\340)E\000@)E\000\320(E\000\000,E\000\340)E\000@)E\000\320(E\000\000,E\000\320-E\000@)E\000\320(E\000\000,E\000\320-E\000 .E\000\320(E\000\000,E\000\320-E\000 .E\000p1E\000\000,E\000\320-E\000 .E\000p1E\000\2401E\000\320-E\000 .E\000p1E\000\2401E\000p1E\000 .E\000p1E\000\2401E\000p1E\000`-E\000p1E\000\2401E\000p1E\000`-E\0000/E\000\2401E\000p1E\000`-E\0000/E\0000-E\000p1E\000`-E\0000/E\0000-E\000\260&E\000`-E\0000/E\0000-E\000\260&E\000 (E\0000/E\0000-E\000\260&E\000 (E\000\220%E\0000-E\000\260&E\000 (E\000\220%E\000\240\'E\000\260&E\000 (E\000\220%E\000\240\'E\000\000)E\000 (E\000\220%E\000\240\'E\000\000)E\000\340(E\000\220%E\000\240\'E\000\000)E\000\340(E\000p)E\000\240\'E\000\000)E\000\340(E\000p)E\000\360(E\000\000)E\000\340(E\000p)E\000\360(E\000\320(E\000\340(E\000p)E\000\360(E\000\320(E\000\220\'E\000p)E\000\360(E\000\320(E\000\220\'E\000\020(E\000\360(E\000\320(E\000\220\'E\000\020(E\000\220&E\000\320(E\000\220\'E\000\020(E\000\220&E\000\240\'E\000\220\'E\000\020(E\000\220&E\000\240\'E\000`)E\000\020(E\000\220&E\000\240\'E\000`)E\000\240(E\000\220&E\000\240\'E\000`)E\000\240(E\000`(E\000\240\'E\000`)E\000\240(E\000`(E\000p#E\000`)E\000\240(E\000`(E\000p#E\000\000%E\000\240(E\000`(E\000p#E\000\000%E\000P E\000`(E\000p#E\000\000%E\000P E\000\360\036E\000p#E\000\000%E\000P E\000\360\036E\000\260\037E\000\000%E\000P E\000\360\036E\000\260\037E\0000 E\000P E\000\360\036E\000\260\037E\0000 E\000  E\000\360\036E\000\260\037E\0000 E\000  E\000p\037E\000\260\037E\0000 E\000  E\000p\037E\000 \035E\0000 E\000  E\000p\037E\000 \035E\000\260\037E\000  E\000p\037E\000 \035E\000\260\037E\000\340\037E\000p\037E\000 \035E\000\260\037E\000\340\037E\000\260\035E\000 \035E\000\260\037E\000\340\037E\000\260\035E\000\200\036E\000\260\037E\000\340\037E\000\260\035E\000\200\036E\000\260\036E\000\340\037E\000\260\035E\000\200\036E\000\260\036E\000\220\035E\000\260\035E\000\200\036E\000\260\036E\000\220\035E\000\300\033E\000\200\036E\000\260\036E\000\220\035E\000\300\033E\000\320\034E\000\260\036E\000\220\035E\000\300\033E\000\320\034E\000 \035E\000\220\035E\000\300\033E\000\320\034E\000 \035E\000P\032E\000\300\033E\000\320\034E\000 \035E\000P\032E\000\200\026E\000\320\034E\000 \035E\000P\032E\000\200\026E\000 \026E\000 \035E\000P\032E\000\200\026E\000 \026E\000\340\027E\000P\032E\000\200\026E\000 \026E\000\340\027E\000@\027E\000\200\026E\000 \026E\000\340\027E\000@\027E\000p\031E\000 \026E\000\340\027E\000@\027E\000p\031E\000\020\033E\000\340\027E\000@\027E\000p\031E\000\020\033E\000\000\032E\000@\027E\000p\031E\000\020\033E\000\000\032E\000@\032E\000p\031E\000\020\033E\000\000\032E\000@\032E\000\360\026E\000\020\033E\000\000\032E\000@\032E\000\360\026E\000\360\031E\000\000\032E\000@\032E\000\360\026E\000\360\031E\000\240\031E\000@\032E\000\360\026E\000\360\031E\000\240\031E\000\320\033E\000\360\026E\000\360\031E\000\240\031E\000\320\033E\000p\033E\000\360\031E\000\240\031E\000\320\033E\000p\033E\000\320\035E\000\240\031E\000\320\033E\000p\033E\000\320\035E\000\340\034E\000\320\033E\000p\033E\000\320\035E\000\340\034E\000P\035E\000p\033E\000\320\035E\000\340\034E\000P\035E\000\220\034E\000\320\035E\000\340\034E\000P\035E\000\220\034E\000P\034E\000\340\034E\000P\035E\000\220\034E\000P\034E\000\220\033E\000P\035E\000\220\034E\000P\034E\000\220\033E\000`\030E\000\220\034E\000P\034E\000\220\033E\000`\030E\000@\030E\000P\034E\000\220\033E\000`\030E\000@\030E\0000\030E\000\220\033E\000`\030E\000@\030E\0000\030E\000\000\027E\000`\030E\000@\030E\0000\030E\000\000\027E\000\020\027E\000@\030E\0000\030E\000\000\027E\000\020\027E\000\020\030E\0000\030E\000\000\027E\000\020\027E\000\020\030E\000\300\027E\000\000\027E\000\020\027E\000\020\030E\000\300\027E\000p\030E\000\020\027E\000\020\030E\000\300\027E\000p\030E\000 \030E\000\020\030E\000\300\027E\000p\030E\000 \030E\000\260\027E\000\300\027E\000p\030E\000 \030E\000\260\027E\000 \027E\000p\030E\000 \030E\000\260\027E\000 \027E\000P\026E\000 \030E\000\260\027E\000 \027E\000P\026E\000\320\026E\000\260\027E\000 \027E\000P\026E\000\320\026E\000\360\026E\000 \027E\000P\026E\000\320\026E\000\360\026E\000\200\025E\000P\026E\000\320\026E\000\360\026E\000\200\025E\000\000\026E\000\320\026E\000\360\026E\000\200\025E\000\000\026E\000@\026E\000\360\026E\000\200\025E\000\000\026E\000@\026E\000\200\026E\000\200\025E\000\000\026E\000@\026E\000\200\026E\000\000\031E\000\000\026E\000@\026E\000\200\026E\000\000\031E\000\220\037E\000@\026E\000\200\026E\000\000\031E\000\220\037E\000P\037E\000\200\026E\000\000\031E\000\220\037E\000P\037E\000P\035E\000\000\031E\000\220\037E\000P\037E\000P\035E\000\300\033E\000\220\037E\000P\037E\000P\035E\000\300\033E\000\220\032E\000P\037E\000P\035E\000\300\033E\000\220\032E\000p\025E\000P\035E\000\300\033E\000\220\032E\000p\025E\000\340\023E\000\300\033E\000\220\032E\000p\025E\000\340\023E\000\020\023E\000\220\032E\000p\025E\000\340\023E\000\020\023E\000p\024E\000p\025E\000\340\023E\000\020\023E\000p\024E\0000\025E\000\340\023E\000\020\023E\000p\024E\0000\025E\000\300\024E\000\020\023E\000p\024E\0000\025E\000\300\024E\000\260\024E\000p\024E\0000\025E\000\300\024E\000\260\024E\0000\027E\0000\025E\000\300\024E\000\260\024E\0000\027E\000\300\024E\000\300\024E\000\260\024E\0000\027E\000\300\024E\000\200\025E\000\260\024E\0000\027E\000\300\024E\000\200\025E\000\240\025E\0000\027E\000\300\024E\000\200\025E\000\240\025E\000\220\022E\000\300\024E\000\200\025E\000\240\025E\000\220\022E\0000\023E\000\200\025E\000\240\025E\000\220\022E\0000\023E\000\360\020E\000\240\025E\000\220\022E\0000\023E\000\360\020E\000@\022E\000\220\022E\0000\023E\000\360\020E\000@\022E\000\260\022E\0000\023E\000\360\020E\000@\022E\000\260\022E\000p\022E\000\360\020E\000@\022E\000\260\022E\000p\022E\000\200\022E\000@\022E\000\260\022E\000p\022E\000\200\022E\000`\022E\000\260\022E\000p\022E\000\200\022E\000`\022E\000\300\020E\000p\022E\000\200\022E\000`\022E\000\300\020E\000\220\016E\000\200\022E\000`\022E\000\300\020E\000\220\016E\000\360\rE\000`\022E\000\300\020E\000\220\016E\000\360\rE\000`\016E\000\300\020E\000\220\016E\000\360\rE\000`\016E\000\340\014E\000\220\016E\000\360\rE\000`\016E\000\340\014E\000\340\nE\000\360\rE\000`\016E\000\340\014E\000\340\nE\000\360\tE\000`\016E\000\340\014E\000\340\nE\000\360\tE\000 \005E\000\340\014E\000\340\nE\000\360\tE\000 \005E\000\220\005E\000\340\nE\000\360\tE\000 \005E\000\220\005E\000\000\007E\000\360\tE\000 \005E\000\220\005E\000\000\007E\000\020\006E\000 \005E\000\220\005E\000\000\007E\000\020\006E\000\220\007E\000\220\005E\000\000\007E\000\020\006E\000\220\007E\000\260\007E\000\000\007E\000\020\006E\000\220\007E\000\260\007E\000\000\tE\000\020\006E\000\220\007E\000\260\007E\000\000\tE\000P\007E\000\220\007E\000\260\007E\000\000\tE\000P\007E\000\220\007E\000\260\007E\000\000\tE\000P\007E\000\220\007E\000\360\tE\000\000\tE\000P\007E\000\220\007E\000\360\tE\000\260\rE\000P\007E\000\220\007E\000\360\tE\000\260\rE\000@\016E\000\220\007E\000\360\tE\000\260\rE\000@\016E\000\360\017E\000\360\tE\000\260\rE\000@\016E\000\360\017E\000P\017E\000\260\rE\000@\016E\000\360\017E\000P\017E\000\020\022E\000@\016E\000\360\017E\000P\017E\000\020\022E\000@\023E\000\360\017E\000P\017E\000\020\022E\000@\023E\000\260\023E\000P\017E\000\020\022E\000@\023E\000\260\023E\000P\021E\000\020\022E\000@\023E\000\260\023E\000P\021E\0000\025E\000@\023E\000\260\023E\000P\021E\0000\025E\000\020\024E\000\260\023E\000P\021E\0000\025E\000\020\024E\000\260\024E\000P\021E\0000\025E\000\020\024E\000\260\024E\0000\024E\0000\025E\000\020\024E\000\260\024E\0000\024E\000\200\023E\000\020\024E\000\260\024E\0000\024E\000\200\023E\000P\023E\000\260\024E\0000\024E\000\200\023E\000P\023E\000`\021E\0000\024E\000\200\023E\000P\023E\000`\021E\000\000\026E\000\200\023E\000P\023E\000`\021E\000\000\026E\000\000\026E\000P\023E\000`\021E\000\000\026E\000\000\026E\000\300\026E\000`\021E\000\000\026E\000\000\026E\000\300\026E\000 \030E\000\000\026E\000\000\026E\000\300\026E\000 \030E\000`\030E\000\000\026E\000\300\026E\000 \030E\000`\030E\000\200\025E\000\300\026E\000 \030E\000`\030E\000\200\025E\000P\025E\000 \030E\000`\030E\000\200\025E\000P\025E\000\200\023E\000`\030E\000\200\025E\000P\025E\000\200\023E\0000\022E\000\200\025E\000P\025E\000\200\023E\0000\022E\000`\020E\000P\025E\000\200\023E\0000\022E\000`\020E\000\220\021E\000\200\023E\0000\022E\000`\020E\000\220\021E\000`\017E\0000\022E\000`\020E\000\220\021E\000`\017E\000\320\014E\000`\020E\000\220\021E\000`\017E\000\320\014E\000 \016E\000\220\021E\000`\017E\000\320\014E\000 \016E\000p\016E\000`\017E\000\320\014E\000 \016E\000p\016E\000@\020E\000\320\014E\000 \016E\000p\016E\000@\020E\000\340\016E\000 \016E\000p\016E\000@\020E\000\340\016E\000\020\020E\000p\016E\000@\020E\000\340\016E\000\020\020E\000`\016E\000@\020E\000\340\016E\000\020\020E\000`\016E\000 \021E\000\340\016E\000\020\020E\000`\016E\000 \021E\000@\025E\000\020\020E\000`\016E\000 \021E\000@\025E\000\020\024E\000`\016E\000 \021E\000@\025E\000\020\024E\000\000\016E\000 \021E\000@\025E\000\020\024E\000\000\016E\000\300\022E\000@\025E\000\020\024E\000\000\016E\000\300\022E\000\220\023E\000\020\024E\000\000\016E\000\300\022E\000\220\023E\000\340\023E\000\000\016E\000\300\022E\000\220\023E\000\340\023E\000\020\024E\000\300\022E\000\220\023E\000\340\023E\000\020\024E\000\220\023E\000\220\023E\000\340\023E\000\020\024E\000\220\023E\000@\023E\000\340\023E\000\020\024E\000\220\023E\000@\023E\000@\027E\000\020\024E\000\220\023E\000@\023E\000@\027E\000\360\026E\000\220\023E\000@\023E\000@\027E\000\360\026E\0000\025E\000@\023E\000@\027E\000\360\026E\0000\025E\000\300\024E\000@\027E\000\360\026E\0000\025E\000\300\024E\000 \022E\000\360\026E\0000\025E\000\300\024E\000 \022E\000\300\023E\0000\025E\000\300\024E\000 \022E\000\300\023E\000\360\020E\000\300\024E\000 \022E\000\300\023E\000\360\020E\000\360\021E\000 \022E\000\300\023E\000\360\020E\000\360\021E\000\340\021E\000\300\023E\000\360\020E\000\360\021E\000\340\021E\000\000\022E\000\360\020E\000\360\021E\000\340\021E\000\000\022E\000\340\023E\000\360\021E\000\340\021E\000\000\022E\000\340\023E\000\260\021E\000\340\021E\000\000\022E\000\340\023E\000\260\021E\000 \022E\000\000\022E\000\340\023E\000\260\021E\000 \022E\000P\021E\000\340\023E\000\260\021E\000 \022E\000P\021E\0000\022E\000\260\021E\000 \022E\000P\021E\0000\022E\000\260\020E\000 \022E\000P\021E\0000\022E\000\260\020E\000\000\021E\000P\021E\0000\022E\000\260\020E\000\000\021E\000\200\017E\0000\022E\000\260\020E\000\000\021E\000\200\017E\000\020\020E\000\260\020E\000\000\021E\000\200\017E\000\020\020E\000\320\016E\000\000\021E\000\200\017E\000\020\020E\000\320\016E\000\220\014E\000\200\017E\000\020\020E\000\320\016E\000\220\014E\000\020\017E\000\020\020E\000\320\016E\000\220\014E\000\020\017E\000\340\rE\000\320\016E\000\220\014E\000\020\017E\000\340\rE\000\320\016E\000\220\014E\000\020\017E\000\340\rE\000\320\016E\0000\016E\000\020\017E\000\340\rE\000\320\016E\0000\016E\000\000\017E\000\340\rE\000\320\016E\0000\016E\000\000\017E\000 \020E\000\320\016E\0000\016E\000\000\017E\000 \020E\000 \017E\0000\016E\000\000\017E\000 \020E\000 \017E\000\240\017E\000\000\017E\000 \020E\000 \017E\000\240\017E\000p\017E\000 \020E\000 \017E\000\240\017E\000p\017E\000`\020E\000 \017E\000\240\017E\000p\017E\000`\020E\000\240\rE\000\240\017E\000p\017E\000`\020E\000\240\rE\000\320\013E\000p\017E\000`\020E\000\240\rE\000\320\013E\000\220\013E\000`\020E\000\240\rE\000\320\013E\000\220\013E\000\200\013E\000\240\rE\000\320\013E\000\220\013E\000\200\013E\000\320\tE\000\320\013E\000\220\013E\000\200\013E\000\320\tE\000p\010E\000\220\013E\000\200\013E\000\320\tE\000p\010E\000\340\010E\000\200\013E\000\320\tE\000p\010E\000\340\010E\000`\tE\000\320\tE\000p\010E\000\340\010E\000`\tE\000\200\010E\000p\010E\000\340\010E\000`\tE\000\200\010E\000 \tE\000\340\010E\000`\tE\000\200\010E\000 \tE\000\240\003E\000`\tE\000\200\010E\000 \tE\000\240\003E\000\360\002E\000\200\010E\000 \tE\000\240\003E\000\360\002E\000`\nE\000 \tE\000\240\003E\000\360\002E\000`\nE\000 \rE\000\240\003E\000\360\002E\000`\nE\000 \rE\000\340\nE\000\360\002E\000`\nE\000 \rE\000\340\nE\000\260\tE\000`\nE\000 \rE\000\340\nE\000\260\tE\000\220\tE\000 \rE\000\340\nE\000\260\tE\000\220\tE\000p\nE\000\340\nE\000\260\tE\000\220\tE\000p\nE\000@\016E\000\260\tE\000\220\tE\000p\nE\000@\016E\000\220\020E\000\220\tE\000p\nE\000@\016E\000\220\020E\000\000\021E\000p\nE\000@\016E\000\220\020E\000\000\021E\000\320\024E\000@\016E\000\220\020E\000\000\021E\000\320\024E\000\340\024E\000\220\020E\000\000\021E\000\320\024E\000\340\024E\000P\027E\000\000\021E\000\320\024E\000\340\024E\000P\027E\000@\027E\000\320\024E\000\340\024E\000P\027E\000@\027E\000 \027E\000\340\024E\000P\027E\000@\027E\000 \027E\0000\022E\000P\027E\000@\027E\000 \027E\0000\022E\000\000\024E\000@\027E\000 \027E\0000\022E\000\000\024E\000P\023E\000 \027E\0000\022E\000\000\024E\000P\023E\000\260\022E\0000\022E\000\000\024E\000P\023E\000\260\022E\000\020\020E\000\000\024E\000P\023E\000\260\022E\000\020\020E\000`\021E\000P\023E\000\260\022E\000\020\020E\000`\021E\000p\022E\000\260\022E\000\020\020E\000`\021E\000p\022E\000\320\020E\000\020\020E\000`\021E\000p\022E\000\320\020E\000\360\021E\000`\021E\000p\022E\000\320\020E\000\360\021E\000p\021E\000p\022E\000\320\020E\000\360\021E\000p\021E\000\240\022E\000\320\020E\000\360\021E\000p\021E\000\240\022E\000\020\021E\000\360\021E\000p\021E\000\240\022E\000\020\021E\000\220\016E\000p\021E\000\240\022E\000\020\021E\000\220\016E\0000\021E\000\240\022E\000\020\021E\000\220\016E\0000\021E\000p\024E\000\020\021E\000\220\016E\0000\021E\000p\024E\0000\025E\000\220\016E\0000\021E\000p\024E\0000\025E\000\340\023E\0000\021E\000p\024E\0000\025E\000\340\023E\000\000\023E\000p\024E\0000\025E\000\340\023E\000\000\023E\000\020\022E\0000\025E\000\340\023E\000\000\023E\000\020\022E\000`\023E\000\340\023E\000\000\023E\000\020\022E\000`\023E\000\000\023E\000\000\023E\000\020\022E\000`\023E\000\000\023E\000P\022E\000\020\022E\000`\023E\000\000\023E\000P\022E\000\220\022E\000`\023E\000\000\023E\000P\022E\000\220\022E\000\000\023E\000\000\023E\000P\022E\000\220\022E\000\000\023E\000\300\021E\000P\022E\000\220\022E\000\000\023E\000\300\021E\0000\021E\000\220\022E\000\000\023E\000\300\021E\0000\021E\000`\021E\000\000\023E\000\300\021E\0000\021E\000`\021E\000`\021E\000\300\021E\0000\021E\000`\021E\000`\021E\000\240\020E\0000\021E\000`\021E\000`\021E\000\240\020E\000\320\016E\000`\021E\000`\021E\000\240\020E\000\320\016E\0000\017E\000`\021E\000\240\020E\000\320\016E\0000\017E\000\300\016E\000\240\020E\000\320\016E\0000\017E\000\300\016E\000\200\017E\000\320\016E\0000\017E\000\300\016E\000\200\017E\000\360\020E\0000\017E\000\300\016E\000\200\017E\000\360\020E\000\360\020E\000\300\016E\000\200\017E\000\360\020E\000\360\020E\000\000\021E\000\200\017E\000\360\020E\000\360\020E\000\000\021E\000@\020E\000\360\020E\000\360\020E\000\000\021E\000@\020E\000\340\017E\000\360\020E\000\000\021E\000@\020E\000\340\017E\0000\021E\000\000\021E\000@\020E\000\340\017E\0000\021E\000\200\024E\000@\020E\000\340\017E\0000\021E\000\200\024E\000\020\027E\000\340\017E\0000\021E\000\200\024E\000\020\027E\000\000\027E\0000\021E\000\200\024E\000\020\027E\000\000\027E\0000\025E\000\200\024E\000\020\027E\000\000\027E\0000\025E\000\220\024E\000\020\027E\000\000\027E\0000\025E\000\220\024E\000 \024E\000\000\027E\0000\025E\000\220\024E\000 \024E\000 \024E\0000\025E\000\220\024E\000 \024E\000 \024E\000@\022E\000\220\024E\000 \024E\000 \024E\000@\022E\000\260\022E\000 \024E\000 \024E\000@\022E\000\260\022E\000\000\020E\000 \024E\000@\022E\000\260\022E\000\000\020E\000 \020E\000@\022E\000\260\022E\000\000\020E\000 \020E\000\200\020E\000\260\022E\000\000\020E\000 \020E\000\200\020E\000`\017E\000\000\020E\000 \020E\000\200\020E\000`\017E\000\240\016E\000 \020E\000\200\020E\000`\017E\000\240\016E\000`\016E\000\200\020E\000`\017E\000\240\016E\000`\016E\000\240\020E\000`\017E\000\240\016E\000`\016E\000\240\020E\000\200\016E\000\240\016E\000`\016E\000\240\020E\000\200\016E\000\200\016E\000`\016E\000\240\020E\000\200\016E\000\200\016E\000\320\rE\000\240\020E\000\200\016E\000\200\016E\000\320\rE\000P\017E\000\200\016E\000\200\016E\000\320\rE\000P\017E\000\020\016E\000\200\016E\000\320\rE\000P\017E\000\020\016E\000\000\014E\000\320\rE\000P\017E\000\020\016E\000\000\014E\000`\014E\000P\017E\000\020\016E\000\000\014E\000`\014E\000`\014E\000\020\016E\000\000\014E\000`\014E\000`\014E\000\260\013E\000\000\014E\000`\014E\000`\014E\000\260\013E\000\020\nE\000`\014E\000`\014E\000\260\013E\000\020\nE\000 \013E\000`\014E\000\260\013E\000\020\nE\000 \013E\000\320\013E\000\260\013E\000\020\nE\000 \013E\000\320\013E\0000\014E\000\020\nE\000 \013E\000\320\013E\0000\014E\000\240\rE\000 \013E\000\320\013E\0000\014E\000\240\rE\000\000\rE\000\320\013E\0000\014E\000\240\rE\000\000\rE\000\240\rE\0000\014E\000\240\rE\000\000\rE\000\240\rE\000\300\rE\000\240\rE\000\000\rE\000\240\rE\000\300\rE\000p\rE\000\000\rE\000\240\rE\000\300\rE\000p\rE\000\000\rE\000\240\rE\000\300\rE\000p\rE\000\000\rE\000\340\013E\000\300\rE\000p\rE\000\000\rE\000\340\013E\000\020\013E\000p\rE\000\000\rE\000\340\013E\000\020\013E\0000\013E\000\000\rE\000\340\013E\000\020\013E\0000\013E\000\320\014E\000\340\013E\000\020\013E\0000\013E\000\320\014E\000\340\014E\000\020\013E\0000\013E\000\320\014E\000\340\014E\000\320\013E\0000\013E\000\320\014E\000\340\014E\000\320\013E\000`\014E\000\320\014E\000\340\014E\000\320\013E\000`\014E\000 \016E\000\340\014E\000\320\013E\000`\014E\000 \016E\000@\013E\000\320\013E\000`\014E\000 \016E\000@\013E\000\020\014E\000`\014E\000 \016E\000@\013E\000\020\014E\000\260\nE\000 \016E\000@\013E\000\020\014E\000\260\nE\000\000\013E\000@\013E\000\020\014E\000\260\nE\000\000\013E\000@\013E\000\020\014E\000\260\nE\000\000\013E\000@\013E\000\200\013E\000\260\nE\000\000\013E\000@\013E\000\200\013E\0000\013E\000\000\013E\000@\013E\000\200\013E\0000\013E\000@\014E\000@\013E\000\200\013E\0000\013E\000@\014E\000\220\013E\000\200\013E\0000\013E\000@\014E\000\220\013E\000\320\nE\0000\013E\000@\014E\000\220\013E\000\320\nE\000 \013E\000@\014E\000\220\013E\000\320\nE\000 \013E\000\200\013E\000\220\013E\000\320\nE\000 \013E\000\200\013E\000\000\nE\000\320\nE\000 \013E\000\200\013E\000\000\nE\000\260\nE\000 \013E\000\200\013E\000\000\nE\000\260\nE\000P\nE\000\200\013E\000\000\nE\000\260\nE\000P\nE\000\020\nE\000\000\nE\000\260\nE\000P\nE\000\020\nE\000p\nE\000\260\nE\000P\nE\000\020\nE\000p\nE\000\220\nE\000P\nE\000\020\nE\000p\nE\000\220\nE\0000\014E\000\020\nE\000p\nE\000\220\nE\0000\014E\000@\013E\000p\nE\000\220\nE\0000\014E\000@\013E\000@\013E\000\220\nE\0000\014E\000@\013E\000@\013E\000\360\014E\0000\014E\000@\013E\000@\013E\000\360\014E\000\260\016E\000@\013E\000@\013E\000\360\014E\000\260\016E\000\240\025E\000@\013E\000\360\014E\000\260\016E\000\240\025E\000\000\024E\000\360\014E\000\260\016E\000\240\025E\000\000\024E\0000\025E\000\260\016E\000\240\025E\000\000\024E\0000\025E\000\220\024E\000\240\025E\000\000\024E\0000\025E\000\220\024E\000\020\023E\000\000\024E\0000\025E\000\220\024E\000\020\023E\000\240\024E\0000\025E\000\220\024E\000\020\023E\000\240\024E\000\340\024E\000\220\024E\000\020\023E\000\240\024E\000\340\024E\0000\024E\000\020\023E\000\240\024E\000\340\024E\0000\024E\000 \027E\000\240\024E\000\340\024E\0000\024E\000 \027E\000@\030E\000\340\024E\0000\024E\000 \027E\000@\030E\000\220\025E\0000\024E\000 \027E\000@\030E\000\220\025E\000\200\025E\000 \027E\000@\030E\000\220\025E\000\200\025E\000\340\027E\000@\030E\000\220\025E\000\200\025E\000\340\027E\000\200\026E\000\220\025E\000\200\025E\000\340\027E\000\200\026E\000\240\026E\000\200\025E\000\340\027E\000\200\026E\000\240\026E\000p\030E\000\340\027E\000\200\026E\000\240\026E\000p\030E\000P\030E\000\200\026E\000\240\026E\000p\030E\000P\030E\0000\031E\000\240\026E\000p\030E\000P\030E\0000\031E\000`\030E\000p\030E\000P\030E\0000\031E\000`\030E\000@\031E\000P\030E\0000\031E\000`\030E\000@\031E\000P\027E\0000\031E\000`\030E\000@\031E\000P\027E\000P\031E\000`\030E\000@\031E\000P\027E\000P\031E\000\240\032E\000@\031E\000P\027E\000P\031E\000\240\032E\0000\031E\000P\027E\000P\031E\000\240\032E\0000\031E\000p\034E\000P\031E\000\240\032E\0000\031E\000p\034E\000\220\031E\000\240\032E\0000\031E\000p\034E\000\220\031E\000\240\031E\0000\031E\000p\034E\000\220\031E\000\240\031E\000\240\027E\000p\034E\000\220\031E\000\240\031E\000\240\027E\000\000\030E\000\220\031E\000\240\031E\000\240\027E\000\000\030E\000\360\030E\000\240\031E\000\240\027E\000\000\030E\000\360\030E\000\240\030E\000\240\027E\000\000\030E\000\360\030E\000\240\030E\000\220\026E\000\000\030E\000\360\030E\000\240\030E\000\220\026E\000\360\026E\000\360\030E\000\240\030E\000\220\026E\000\360\026E\000P\025E\000\240\030E\000\220\026E\000\360\026E\000P\025E\000\000\022E\000\220\026E\000\360\026E\000P\025E\000\000\022E\000\200\020E\000\360\026E\000P\025E\000\000\022E\000\200\020E\000P\017E\000P\025E\000\000\022E\000\200\020E\000P\017E\000\340\020E\000\000\022E\000\200\020E\000P\017E\000\340\020E\000\020\021E\000\200\020E\000P\017E\000\340\020E\000\020\021E\0000\021E\000P\017E\000\340\020E\000\020\021E\0000\021E\000p\021E\000\340\020E\000\020\021E\0000\021E\000p\021E\0000\020E\000\020\021E\0000\021E\000p\021E\0000\020E\000\200\021E\0000\021E\000p\021E\0000\020E\000\200\021E\000\220\020E\000p\021E\0000\020E\000\200\021E\000\220\020E\000\000\017E\0000\020E\000\200\021E\000\220\020E\000\000\017E\000\360\016E\000\200\021E\000\220\020E\000\000\017E\000\360\016E\000\340\016E\000\220\020E\000\000\017E\000\360\016E\000\340\016E\000@\020E\000\000\017E\000\360\016E\000\340\016E\000@\020E\0000\020E\000\360\016E\000\340\016E\000@\020E\0000\020E\000p\022E\000\340\016E\000@\020E\0000\020E\000p\022E\000\300\023E\000@\020E\0000\020E\000p\022E\000\300\023E\000p\023E\0000\020E\000p\022E\000\300\023E\000p\023E\000@\025E\000p\022E\000\300\023E\000p\023E\000@\025E\000\000\026E\000\300\023E\000p\023E\000@\025E\000\000\026E\0000\021E\000p\023E\000@\025E\000\000\026E\0000\021E\000\320\022E\000@\025E\000\000\026E\0000\021E\000\320\022E\0000\022E\000\000\026E\0000\021E\000\320\022E\0000\022E\0000\021E\0000\021E\000\320\022E\0000\022E\0000\021E\000\220\021E\000\320\022E\0000\022E\0000\021E\000\220\021E\000\300\021E\0000\022E\0000\021E\000\220\021E\000\300\021E\0000\021E\0000\021E\000\220\021E\000\300\021E\0000\021E\000@\027E\000\220\021E\000\300\021E\0000\021E\000@\027E\000\360\027E\000\300\021E\0000\021E\000@\027E\000\360\027E\000\300\"E\0000\021E\000@\027E\000\360\027E\000\300\"E\0000\032E\000@\027E\000\360\027E\000\300\"E\0000\032E\000\020!E\000\360\027E\000\300\"E\0000\032E\000\020!E\000\260 E\000\300\"E\0000\032E\000\020!E\000\260 E\000\240!E\0000\032E\000\020!E\000\260 E\000\240!E\000p E\000\020!E\000\260 E\000\240!E\000p E\000 \"E\000\260 E\000\240!E\000p E\000 \"E\000\340 E\000\240!E\000p E\000 \"E\000\340 E\0000!E\000p E\000 \"E\000\340 E\0000!E\000\200\037E\000 \"E\000\340 E\0000!E\000\200\037E\000@!E\000\340 E\0000!E\000\200\037E\000@!E\000\240!E\0000!E\000\200\037E\000@!E\000\240!E\0000\"E\000\200\037E\000@!E\000\240!E\0000\"E\000 $E\000@!E\000\240!E\0000\"E\000 $E\000\320$E\000\240!E\0000\"E\000 $E\000\320$E\0000&E\0000\"E\000 $E\000\320$E\0000&E\000\260$E\000 $E\000\320$E\0000&E\000\260$E\000\220%E\000\320$E\0000&E\000\260$E\000\220%E\000\360$E\0000&E\000\260$E\000\220%E\000\360$E\000\200#E\000\260$E\000\220%E\000\360$E\000\200#E\000\200$E\000\220%E\000\360$E\000\200#E\000\200$E\000\240%E\000\360$E\000\200#E\000\200$E\000\240%E\000\020(E\000\200#E\000\200$E\000\240%E\000\020(E\000\020-E\000\200$E\000\240%E\000\020(E\000\020-E\000\000,E\000\240%E\000\020(E\000\020-E\000\000,E\000@*E\000\020(E\000\020-E\000\000,E\000@*E\000P)E\000\020-E\000\000,E\000@*E\000P)E\000p(E\000\000,E\000@*E\000P)E\000p(E\000`\'E\000@*E\000P)E\000p(E\000`\'E\0000)E\000P)E\000p(E\000`\'E\0000)E\000\020(E\000p(E\000`\'E\0000)E\000\020(E\000\220(E\000`\'E\0000)E\000\020(E\000\220(E\000@\'E\0000)E\000\020(E\000\220(E\000@\'E\000\260\'E\000\020(E\000\220(E\000@\'E\000\260\'E\000\340\'E\000\220(E\000@\'E\000\260\'E\000\340\'E\000\320%E\000@\'E\000\260\'E\000\340\'E\000\320%E\000\240&E\000\260\'E\000\340\'E\000\320%E\000\240&E\000\200%E\000\340\'E\000\320%E\000\240&E\000\200%E\000P&E\000\320%E\000\240&E\000\200%E\000P&E\000\000&E\000\240&E\000\200%E\000P&E\000\000&E\000@&E\000\200%E\000P&E\000\000&E\000@&E\000\020&E\000P&E\000\000&E\000@&E\000\020&E\000 &E\000\000&E\000@&E\000\020&E\000 &E\000\020%E\000@&E\000\020&E\000 &E\000\020%E\000\300$E\000\020&E\000 &E\000\020%E\000\300$E\000\020%E\000 &E\000\020%E\000\300$E\000\020%E\000`%E\000\020%E\000\300$E\000\020%E\000`%E\000\200\'E\000\300$E\000\020%E\000`%E\000\200\'E\000P%E\000\020%E\000`%E\000\200\'E\000P%E\000\000\'E\000`%E\000\200\'E\000P%E\000\000\'E\000@&E\000\200\'E\000P%E\000\000\'E\000@&E\000P%E\000P%E\000\000\'E\000@&E\000P%E\000\260$E\000\000\'E\000@&E\000P%E\000\260$E\000P%E\000@&E\000P%E\000\260$E\000P%E\0000#E\000P%E\000\260$E\000P%E\0000#E\0000#E\000\260$E\000P%E\0000#E\0000#E\000` E\000P%E\0000#E\0000#E\000` E\000\360\034E\0000#E\0000#E\000` E\000\360\034E\000\340\034E\0000#E\000` E\000\360\034E\000\340\034E\000\240\033E\000` E\000\360\034E\000\340\034E\000\240\033E\0000\031E\000\360\034E\000\340\034E\000\240\033E\0000\031E\000\340\031E\000\340\034E\000\240\033E\0000\031E\000\340\031E\000P\032E\000\240\033E\0000\031E\000\340\031E\000P\032E\000\360\032E\0000\031E\000\340\031E\000P\032E\000\360\032E\000`\032E\000\340\031E\000P\032E\000\360\032E\000`\032E\000\220\033E\000P\032E\000\360\032E\000`\032E\000\220\033E\000\000\036E\000\360\032E\000`\032E\000\220\033E\000\000\036E\000p\036E\000`\032E\000\220\033E\000\000\036E\000p\036E\000\200\036E\000\220\033E\000\000\036E\000p\036E\000\200\036E\000 \036E\000\000\036E\000p\036E\000\200\036E\000 \036E\000\320\037E\000p\036E\000\200\036E\000 \036E\000\320\037E\000\200\037E\000\200\036E\000 \036E\000\320\037E\000\200\037E\000\020\037E\000 \036E\000\320\037E\000\200\037E\000\020\037E\000\360!E\000\320\037E\000\200\037E\000\020\037E\000\360!E\000\300 E\000\200\037E\000\020\037E\000\360!E\000\300 E\000p\"E\000\020\037E\000\360!E\000\300 E\000p\"E\000\320!E\000\360!E\000\300 E\000p\"E\000\320!E\000p\"E\000\300 E\000p\"E\000\320!E\000p\"E\000\000#E\000p\"E\000\320!E\000p\"E\000\000#E\000\360\"E\000\320!E\000p\"E\000\000#E\000\360\"E\000P#E\000p\"E\000\000#E\000\360\"E\000P#E\000\200$E\000\000#E\000\360\"E\000P#E\000\200$E\000@#E\000\360\"E\000P#E\000\200$E\000@#E\000\220#E\000P#E\000\200$E\000@#E\000\220#E\000\240 E\000\200$E\000@#E\000\220#E\000\240 E\000\260\035E\000@#E\000\220#E\000\240 E\000\260\035E\0000\037E\000\220#E\000\240 E\000\260\035E\0000\037E\000P\037E\000\240 E\000\260\035E\0000\037E\000P\037E\000\360 E\000\260\035E\0000\037E\000P\037E\000\360 E\000\360 E\0000\037E\000P\037E\000\360 E\000\360 E\000\260\037E\000P\037E\000\360 E\000\360 E\000\260\037E\000`\037E\000\360 E\000\360 E\000\260\037E\000`\037E\000\000\035E\000\360 E\000\260\037E\000`\037E\000\000\035E\000\360\036E\000\260\037E\000`\037E\000\000\035E\000\360\036E\000\320\035E\000`\037E\000\000\035E\000\360\036E\000\320\035E\0000\033E\000\000\035E\000\360\036E\000\320\035E\0000\033E\000\240\033E\000\360\036E\000\320\035E\0000\033E\000\240\033E\000 \033E\000\320\035E\0000\033E\000\240\033E\000 \033E\000 \037E\0000\033E\000\240\033E\000 \033E\000 \037E\000\000\036E\000\240\033E\000 \033E\000 \037E\000\000\036E\000`\034E\000 \033E\000 \037E\000\000\036E\000`\034E\000\020\035E\000 \037E\000\000\036E\000`\034E\000\020\035E\000\260!E\000\000\036E\000`\034E\000\020\035E\000\260!E\000\340 E\000`\034E\000\020\035E\000\260!E\000\340 E\000p\036E\000\020\035E\000\260!E\000\340 E\000p\036E\000\300\037E\000\260!E\000\340 E\000p\036E\000\300\037E\000\220\037E\000\340 E\000p\036E\000\300\037E\000\220\037E\0000 E\000p\036E\000\300\037E\000\220\037E\0000 E\000`&E\000\300\037E\000\220\037E\0000 E\000`&E\000\020$E\000\220\037E\0000 E\000`&E\000\020$E\000 #E\0000 E\000`&E\000\020$E\000 #E\000\240#E\000`&E\000\020$E\000 #E\000\240#E\000\320#E\000\020$E\000 #E\000\240#E\000\320#E\0000 E\000 #E\000\240#E\000\320#E\0000 E\000@ E\000\240#E\000\320#E\0000 E\000@ E\000p$E\000\320#E\0000 E\000@ E\000p$E\000\000)E\0000 E\000@ E\000p$E\000\000)E\000\260(E\000@ E\000p$E\000\000)E\000\260(E\000\260(E\000p$E\000\000)E\000\260(E\000\260(E\000\360#E\000\000)E\000\260(E\000\260(E\000\360#E\000\300!E\000\260(E\000\260(E\000\360#E\000\300!E\000`$E\000\260(E\000\360#E\000\300!E\000`$E\0000\"E\000\360#E\000\300!E\000`$E\0000\"E\000\000 E\000\300!E\000`$E\0000\"E\000\000 E\000@ E\000`$E\0000\"E\000\000 E\000@ E\000\300 E\0000\"E\000\000 E\000@ E\000\300 E\000\220\037E\000\000 E\000@ E\000\300 E\000\220\037E\0000\"E\000@ E\000\300 E\000\220\037E\0000\"E\0000$E\000\300 E\000\220\037E\0000\"E\0000$E\000P#E\000\220\037E\0000\"E\0000$E\000P#E\000\220#E\0000\"E\0000$E\000P#E\000\220#E\000@%E\0000$E\000P#E\000\220#E\000@%E\000\340$E\000P#E\000\220#E\000@%E\000\340$E\000P%E\000\220#E\000@%E\000\340$E\000P%E\000\020(E\000@%E\000\340$E\000P%E\000\020(E\0000(E\000\340$E\000P%E\000\020(E\0000(E\000\300+E\000P%E\000\020(E\0000(E\000\300+E\000@0E\000\020(E\0000(E\000\300+E\000@0E\000\3200E\0000(E\000\300+E\000@0E\000\3200E\000\2200E\000\300+E\000@0E\000\3200E\000\2200E\000\200,E\000@0E\000\3200E\000\2200E\000\200,E\000\240(E\000\3200E\000\2200E\000\200,E\000\240(E\000\200+E\000\2200E\000\200,E\000\240(E\000\200+E\000P4E\000\200,E\000\240(E\000\200+E\000P4E\000\2203E\000\240(E\000\200+E\000P4E\000\2203E\000\3205E\000\200+E\000P4E\000\2203E\000\3205E\000\0205E\000P4E\000\2203E\000\3205E\000\0205E\000@4E\000\2203E\000\3205E\000\0205E\000@4E\000\3008E\000\3205E\000\0205E\000@4E\000\3008E\000\2008E\000\0205E\000@4E\000\3008E\000\2008E\000\300;E\000@4E\000\3008E\000\2008E\000\300;E\000\220<E\000\3008E\000\2008E\000\300;E\000\220<E\000\320<E\000\2008E\000\300;E\000\220<E\000\320<E\000@>E\000\300;E\000\220<E\000\320<E\000@>E\000\300?E\000\220<E\000\320<E\000@>E\000\300?E\000\020@E\000\320<E\000@>E\000\300?E\000\020@E\000\300@E\000@>E\000\300?E\000\020@E\000\300@E\000\240EE\000\300?E\000\020@E\000\300@E\000\240EE\000\020DE\000\020@E\000\300@E\000\240EE\000\020DE\000`DE\000\300@E\000\240EE\000\020DE\000`DE\000\260AE\000\240EE\000\020DE\000`DE\000\260AE\000PBE\000\020DE\000`DE\000\260AE\000PBE\000@GE\000`DE\000\260AE\000PBE\000@GE\000pJE\000\260AE\000PBE\000@GE\000pJE\000\220HE\000PBE\000@GE\000pJE\000\220HE\000\000GE\000@GE\000pJE\000\220HE\000\000GE\0000FE\000pJE\000\220HE\000\000GE\0000FE\000\340CE\000\220HE\000\000GE\0000FE\000\340CE\000pDE\000\000GE\0000FE\000\340CE\000pDE\000\000HE\0000FE\000\340CE\000pDE\000\000HE\000\340IE\000\340CE\000pDE\000\000HE\000\340IE\000\200IE\000pDE\000\000HE\000\340IE\000\200IE\000@AE\000\000HE\000\340IE\000\200IE\000@AE\000\020BE\000\340IE\000\200IE\000@AE\000\020BE\000 GE\000\200IE\000@AE\000\020BE\000 GE\000\220EE\000@AE\000\020BE\000 GE\000\220EE\000\020GE\000\020BE\000 GE\000\220EE\000\020GE\000pJE\000 GE\000\220EE\000\020GE\000pJE\000\340JE\000\220EE\000\020GE\000pJE\000\340JE\0000HE\000\020GE\000pJE\000\340JE\0000HE\0000KE\000pJE\000\340JE\0000HE\0000KE\0000ME\000\340JE\0000HE\0000KE\0000ME\000\260HE\0000HE\0000KE\0000ME\000\260HE\000\320LE\0000KE\0000ME\000\260HE\000\320LE\000@LE\0000ME\000\260HE\000\320LE\000@LE\000\300JE\000\260HE\000\320LE\000@LE\000\300JE\000\320ME\000\320LE\000@LE\000\300JE\000\320ME\000 QE\000@LE\000\300JE\000\320ME\000 QE\000\220PE\000\300JE\000\320ME\000 QE\000\220PE\000POE\000\320ME\000 QE\000\220PE\000POE\000`PE\000 QE\000\220PE\000POE\000`PE\000PME\000\220PE\000POE\000`PE\000PME\000\320LE\000POE\000`PE\000PME\000\320LE\000pQE\000`PE\000PME\000\320LE\000pQE\000\240QE\000PME\000\320LE\000pQE\000\240QE\000\340QE\000\320LE\000pQE\000\240QE\000\340QE\000\320SE\000pQE\000\240QE\000\340QE\000\320SE\000\000UE\000\240QE\000\340QE\000\320SE\000\000UE\000pXE\000\340QE\000\320SE\000\000UE\000pXE\000\320YE\000\320SE\000\000UE\000pXE\000\320YE\000@[E\000\000UE\000pXE\000\320YE\000@[E\000 ]E\000pXE\000\320YE\000@[E\000 ]E\000\260XE\000\320YE\000@[E\000 ]E\000\260XE\000\220SE\000@[E\000 ]E\000\260XE\000\220SE\000`TE\000 ]E\000\260XE\000\220SE\000`TE\000\340UE\000\260XE\000\220SE\000`TE\000\340UE\000`PE\000\220SE\000`TE\000\340UE\000`PE\000\360RE\000`TE\000\340UE\000`PE\000\360RE\000POE\000\340UE\000`PE\000\360RE\000POE\000 JE\000`PE\000\360RE\000POE\000 JE\000@IE\000\360RE\000POE\000 JE\000@IE\000\220CE\000POE\000 JE\000@IE\000\220CE\000 CE\000 JE\000@IE\000\220CE\000 CE\000PBE\000@IE\000\220CE\000 CE\000PBE\000PGE\000\220CE\000 CE\000PBE\000PGE\000\320DE\000 CE\000PBE\000PGE\000\320DE\000 JE\000PBE\000PGE\000\320DE\000 JE\000\200PE\000PGE\000\320DE\000 JE\000\200PE\000\240PE\000\320DE\000 JE\000\200PE\000\240PE\000\020NE\000 JE\000\200PE\000\240PE\000\020NE\000 RE\000\200PE\000\240PE\000\020NE\000 RE\000\360RE\000\240PE\000\020NE\000 RE\000\360RE\000 TE\000\020NE\000 RE\000\360RE\000 TE\000@NE\000 RE\000\360RE\000 TE\000@NE\000\260NE\000\360RE\000 TE\000@NE\000\260NE\000\260NE\000 TE\000@NE\000\260NE\000\260NE\000\360ME\000@NE\000\260NE\000\260NE\000\360ME\000\020OE\000\260NE\000\260NE\000\360ME\000\020OE\000\300OE\000\260NE\000\360ME\000\020OE\000\300OE\000\240SE\000\360ME\000\020OE\000\300OE\000\240SE\000\240RE\000\020OE\000\300OE\000\240SE\000\240RE\000@UE\000\300OE\000\240SE\000\240RE\000@UE\000@UE\000\240SE\000\240RE\000@UE\000@UE\000@UE\000\240RE\000@UE\000@UE\000@UE\000\000UE\000@UE\000@UE\000@UE\000\000UE\000 WE\000@UE\000@UE\000\000UE\000 WE\000\320VE\000@UE\000\000UE\000 WE\000\320VE\000\340VE\000\000UE\000 WE\000\320VE\000\340VE\000`UE\000 WE\000\320VE\000\340VE\000`UE\000\240WE\000\320VE\000\340VE\000`UE\000\240WE\000 VE\000\340VE\000`UE\000\240WE\000 VE\000pXE\000`UE\000\240WE\000 VE\000pXE\000@_E\000\240WE\000 VE\000pXE\000@_E\000`[E\000 VE\000pXE\000@_E\000`[E\000\200VE\000pXE\000@_E\000`[E\000\200VE\000\240VE\000@_E\000`[E\000\200VE\000\240VE\000\300NE\000`[E\000\200VE\000\240VE\000\300NE\000\320PE\000\200VE\000\240VE\000\300NE\000\320PE\000\220HE\000\240VE\000\300NE\000\320PE\000\220HE\000\000LE\000\300NE\000\320PE\000\220HE\000\000LE\000@IE\000\320PE\000\220HE\000\000LE\000@IE\000\020ME\000\220HE\000\000LE\000@IE\000\020ME\000@ME\000\000LE\000@IE\000\020ME\000@ME\000`OE\000@IE\000\020ME\000@ME\000`OE\000pLE\000\020ME\000@ME\000`OE\000pLE\000\360ME\000@ME\000`OE\000pLE\000\360ME\000PPE\000`OE\000pLE\000\360ME\000PPE\000\320RE\000pLE\000\360ME\000PPE\000\320RE\000\260QE\000\360ME\000PPE\000\320RE\000\260QE\000pYE\000PPE\000\320RE\000\260QE\000pYE\000\300YE\000\320RE\000\260QE\000pYE\000\300YE\000\300`E\000\260QE\000pYE\000\300YE\000\300`E\000P_E\000pYE\000\300YE\000\300`E\000P_E\0000\\E\000\300YE\000\300`E\000P_E\0000\\E\000\300`E\000\300`E\000P_E\0000\\E\000\300`E\000\300]E\000P_E\0000\\E\000\300`E\000\300]E\000@bE\0000\\E\000\300`E\000\300]E\000@bE\000 ]E\000\300`E\000\300]E\000@bE\000 ]E\000\340]E\000\300]E\000@bE\000 ]E\000\340]E\000\020]E\000@bE\000 ]E\000\340]E\000\020]E\000\020cE\000 ]E\000\340]E\000\020]E\000\020cE\000\000jE\000\340]E\000\020]E\000\020cE\000\000jE\000`aE\000\020]E\000\020cE\000\000jE\000`aE\000\360^E\000\020cE\000\000jE\000`aE\000\360^E\000PeE\000\000jE\000`aE\000\360^E\000PeE\000\200`E\000`aE\000\360^E\000PeE\000\200`E\000\220WE\000\360^E\000PeE\000\200`E\000\220WE\0000]E\000PeE\000\200`E\000\220WE\0000]E\000\240WE\000\200`E\000\220WE\0000]E\000\240WE\000p[E\000\220WE\0000]E\000\240WE\000p[E\000\340ZE\0000]E\000\240WE\000p[E\000\340ZE\000 VE\000\240WE\000p[E\000\340ZE\000 VE\000\000NE\000p[E\000\340ZE\000 VE\000\000NE\000 PE\000\340ZE\000 VE\000\000NE\000 PE\000\020HE\000 VE\000\000NE\000 PE\000\020HE\000\320DE\000\000NE\000 PE\000\020HE\000\320DE\000\020HE\000 PE\000\020HE\000\320DE\000\020HE\000\240ME\000\020HE\000\320DE\000\020HE\000\240ME\000`OE\000\320DE\000\020HE\000\240ME\000`OE\000\200LE\000\020HE\000\240ME\000`OE\000\200LE\000\360IE\000\240ME\000`OE\000\200LE\000\360IE\000 JE\000`OE\000\200LE\000\360IE\000 JE\000\020?E\000\200LE\000\360IE\000 JE\000\020?E\000\220;E\000\360IE\000 JE\000\020?E\000\220;E\000\020=E\000 JE\000\020?E\000\220;E\000\020=E\000\020=E\000\020?E\000\220;E\000\020=E\000\020=E\000 FE\000\220;E\000\020=E\000\020=E\000 FE\000\240CE\000\020=E\000\020=E\000 FE\000\240CE\000@EE\000\020=E\000 FE\000\240CE\000@EE\000PKE\000 FE\000\240CE\000@EE\000PKE\000\020LE\000\240CE\000@EE\000PKE\000\020LE\000\020OE\000@EE\000PKE\000\020LE\000\020OE\000\200TE\000PKE\000\020LE\000\020OE\000\200TE\000`RE\000\020LE\000\020OE\000\200TE\000`RE\000PQE\000\020OE\000\200TE\000`RE\000PQE\000pUE\000\200TE\000`RE\000PQE\000pUE\000\300NE\000`RE\000PQE\000pUE\000\300NE\000 ME\000PQE\000pUE\000\300NE\000 ME\000 TE\000pUE\000\300NE\000 ME\000 TE\000\360RE\000\300NE\000 ME\000 TE\000\360RE\000\360NE\000 ME\000 TE\000\360RE\000\360NE\000\240QE\000 TE\000\360RE\000\360NE\000\240QE\000\340NE\000\360RE\000\360NE\000\240QE\000\340NE\000\300OE\000\360NE\000\240QE\000\340NE\000\300OE\000\300OE\000\240QE\000\340NE\000\300OE\000\300OE\000\300OE\000\340NE\000\300OE\000\300OE\000\300OE\000PTE\000\300OE\000\300OE\000\300OE\000PTE\000\020XE\000\300OE\000\300OE\000PTE\000\020XE\000PVE\000\300OE\000PTE\000\020XE\000PVE\000\220WE\000PTE\000\020XE\000PVE\000\220WE\000\200WE\000\020XE\000PVE\000\220WE\000\200WE\000\360^E\000PVE\000\220WE\000\200WE\000\360^E\000\220^E\000\220WE\000\200WE\000\360^E\000\220^E\000\000aE\000\200WE\000\360^E\000\220^E\000\000aE\000\020aE\000\360^E\000\220^E\000\000aE\000\020aE\000\020cE\000\220^E\000\000aE\000\020aE\000\020cE\000\220bE\000\000aE\000\020aE\000\020cE\000\220bE\000pdE\000\020aE\000\020cE\000\220bE\000pdE\000\200cE\000\020cE\000\220bE\000pdE\000\200cE\000\260eE\000\220bE\000pdE\000\200cE\000\260eE\000\360eE\000pdE\000\200cE\000\260eE\000\360eE\000@kE\000\200cE\000\260eE\000\360eE\000@kE\000\320hE\000\260eE\000\360eE\000@kE\000\320hE\000`iE\000\360eE\000@kE\000\320hE\000`iE\0000iE\000@kE\000\320hE\000`iE\0000iE\000\360dE\000\320hE\000`iE\0000iE\000\360dE\000\300gE\000`iE\0000iE\000\360dE\000\300gE\000\260bE\0000iE\000\360dE\000\300gE\000\260bE\000\000fE\000\360dE\000\300gE\000\260bE\000\000fE\000@jE\000\300gE\000\260bE\000\000fE\000@jE\000\360qE\000\260bE\000\000fE\000@jE\000\360qE\000\360qE\000\000fE\000@jE\000\360qE\000\360qE\000\240vE\000@jE\000\360qE\000\360qE\000\240vE\000`yE\000\360qE\000\360qE\000\240vE\000`yE\000\300}E\000\360qE\000\240vE\000`yE\000\300}E\0000|E\000\240vE\000`yE\000\300}E\0000|E\0008\203E\000`yE\000\300}E\0000|E\0008\203E\000\220\203E\000\300}E\0000|E\0008\203E\000\220\203E\000\350\204E\0000|E\0008\203E\000\220\203E\000\350\204E\000X\204E\0008\203E\000\220\203E\000\350\204E\000X\204E\000\030\203E\000\220\203E\000\350\204E\000X\204E\000\030\203E\000\250\201E\000\350\204E\000X\204E\000\030\203E\000\250\201E\000\000sE\000X\204E\000\030\203E\000\250\201E\000\000sE\000\300xE\000\030\203E\000\250\201E\000\000sE\000\300xE\0000zE\000\250\201E\000\000sE\000\300xE\0000zE\000\220\201E\000\000sE\000\300xE\0000zE\000\220\201E\000\020}E\000\300xE\0000zE\000\220\201E\000\020}E\000\320\177E\0000zE\000\220\201E\000\020}E\000\320\177E\000\020\203E\000\220\201E\000\020}E\000\320\177E\000\020\203E\000\200\177E\000\020}E\000\320\177E\000\020\203E\000\200\177E\000\030\204E\000\320\177E\000\020\203E\000\200\177E\000\030\204E\000\240\177E\000\020\203E\000\200\177E\000\030\204E\000\240\177E\000\300sE\000\200\177E\000\030\204E\000\240\177E\000\300sE\000@vE\000\030\204E\000\240\177E\000\300sE\000@vE\000`vE\000\240\177E\000\300sE\000@vE\000`vE\000\300|E\000\300sE\000@vE\000`vE\000\300|E\000\260wE\000@vE\000`vE\000\300|E\000\260wE\000 zE\000`vE\000\300|E\000\260wE\000 zE\0000vE\000\300|E\000\260wE\000 zE\0000vE\000\300xE\000\260wE\000 zE\0000vE\000\300xE\000PuE\000 zE\0000vE\000\300xE\000PuE\000@lE\0000vE\000\300xE\000PuE\000@lE\000\240nE\000\300xE\000PuE\000@lE\000\240nE\000\240hE\000PuE\000@lE\000\240nE\000\240hE\0000jE\000@lE\000\240nE\000\240hE\0000jE\000\340hE\000\240nE\000\240hE\0000jE\000\340hE\000\000mE\000\240hE\0000jE\000\340hE\000\000mE\000\000fE\0000jE\000\340hE\000\000mE\000\000fE\000\220iE\000\340hE\000\000mE\000\000fE\000\220iE\000@jE\000\000mE\000\000fE\000\220iE\000@jE\000`cE\000\000fE\000\220iE\000@jE\000`cE\000\220[E\000\220iE\000@jE\000`cE\000\220[E\000\300QE\000@jE\000`cE\000\220[E\000\300QE\000`QE\000`cE\000\220[E\000\300QE\000`QE\000pSE\000\220[E\000\300QE\000`QE\000pSE\000 PE\000\300QE\000`QE\000pSE\000 PE\000\200FE\000`QE\000pSE\000 PE\000\200FE\000\020ME\000pSE\000 PE\000\200FE\000\020ME\000\000UE\000 PE\000\200FE\000\020ME\000\000UE\000 ZE\000\200FE\000\020ME\000\000UE\000 ZE\000 QE\000\020ME\000\000UE\000 ZE\000 QE\000 \\E\000\000UE\000 ZE\000 QE\000 \\E\000PZE\000 ZE\000 QE\000 \\E\000PZE\000 `E\000 QE\000 \\E\000PZE\000 `E\000\000_E\000 \\E\000PZE\000 `E\000\000_E\000@_E\000PZE\000 `E\000\000_E\000@_E\000\020fE\000 `E\000\000_E\000@_E\000\020fE\000\340_E\000\000_E\000@_E\000\020fE\000\340_E\000 gE\000@_E\000\020fE\000\340_E\000 gE\000`eE\000\020fE\000\340_E\000 gE\000`eE\000\340cE\000\340_E\000 gE\000`eE\000\340cE\000\240fE\000 gE\000`eE\000\340cE\000\240fE\000\340^E\000`eE\000\340cE\000\240fE\000\340^E\000 _E\000\340cE\000\240fE\000\340^E\000 _E\000\340[E\000\240fE\000\340^E\000 _E\000\340[E\000\020YE\000\340^E\000 _E\000\340[E\000\020YE\000\260VE\000 _E\000\340[E\000\020YE\000\260VE\000\300QE\000\340[E\000\020YE\000\260VE\000\300QE\000\000TE\000\020YE\000\260VE\000\300QE\000\000TE\0000RE\000\260VE\000\300QE\000\000TE\0000RE\000\340YE\000\300QE\000\000TE\0000RE\000\340YE\000\020ZE\000\000TE\0000RE\000\340YE\000\020ZE\000\360NE\0000RE\000\340YE\000\020ZE\000\360NE\000\240PE\000\340YE\000\020ZE\000\360NE\000\240PE\000\260NE\000\020ZE\000\360NE\000\240PE\000\260NE\000\020PE\000\360NE\000\240PE\000\260NE\000\020PE\000\220XE\000\240PE\000\260NE\000\020PE\000\220XE\0000WE\000\260NE\000\020PE\000\220XE\0000WE\000\000YE\000\020PE\000\220XE\0000WE\000\000YE\000\220WE\000\220XE\0000WE\000\000YE\000\220WE\000PVE\0000WE\000\000YE\000\220WE\000PVE\000\260KE\000\000YE\000\220WE\000PVE\000\260KE\000\220AE\000\220WE\000PVE\000\260KE\000\220AE\000\3607E\000PVE\000\260KE\000\220AE\000\3607E\000\2005E\000\260KE\000\220AE\000\3607E\000\2005E\000\360+E\000\220AE\000\3607E\000\2005E\000\360+E\000\240)E\000\3607E\000\2005E\000\360+E\000\240)E\000\260-E\000\2005E\000\360+E\000\240)E\000\260-E\000\200\'E\000\360+E\000\240)E\000\260-E\000\200\'E\000p\036E\000\240)E\000\260-E\000\200\'E\000p\036E\000\220(E\000\260-E\000\200\'E\000p\036E\000\220(E\000\020.E\000\200\'E\000p\036E\000\220(E\000\020.E\000P*E\000p\036E\000\220(E\000\020.E\000P*E\000\260%E\000\220(E\000\020.E\000P*E\000\260%E\000\300(E\000\020.E\000P*E\000\260%E\000\300(E\000p*E\000P*E\000\260%E\000\300(E\000p*E\000\240(E\000\260%E\000\300(E\000p*E\000\240(E\000@3E\000\300(E\000p*E\000\240(E\000@3E\000\2401E\000p*E\000\240(E\000@3E\000\2401E\000\2404E\000\240(E\000@3E\000\2401E\000\2404E\000 \'E\000@3E\000\2401E\000\2404E\000 \'E\000\220\'E\000\2401E\000\2404E\000 \'E\000\220\'E\000\320\037E\000\2404E\000 \'E\000\220\'E\000\320\037E\000\020\037E\000 \'E\000\220\'E\000\320\037E\000\020\037E\000@\031E\000\220\'E\000\320\037E\000\020\037E\000@\031E\000P\036E\000\320\037E\000\020\037E\000@\031E\000P\036E\000\260!E\000\020\037E\000@\031E\000P\036E\000\260!E\000 \035E\000@\031E\000P\036E\000\260!E\000 \035E\0000\037E\000P\036E\000\260!E\000 \035E\0000\037E\000\300\036E\000\260!E\000 \035E\0000\037E\000\300\036E\000@\036E\000 \035E\0000\037E\000\300\036E\000@\036E\000\260\036E\0000\037E\000\300\036E\000@\036E\000\260\036E\000p\034E\000\300\036E\000@\036E\000\260\036E\000p\034E\000\020\037E\000@\036E\000\260\036E\000p\034E\000\020\037E\000P\033E\000\260\036E\000p\034E\000\020\037E\000P\033E\000\360\024E\000p\034E\000\020\037E\000P\033E\000\360\024E\000\340\023E\000\020\037E\000P\033E\000\360\024E\000\340\023E\000\320\024E\000P\033E\000\360\024E\000\340\023E\000\320\024E\000\320\024E\000\360\024E\000\340\023E\000\320\024E\000\320\024E\000\000\025E\000\340\023E\000\320\024E\000\320\024E\000\000\025E\000p\021E\000\320\024E\000\320\024E\000\000\025E\000p\021E\000\360\020E\000\320\024E\000\000\025E\000p\021E\000\360\020E\000\020\014E\000\000\025E\000p\021E\000\360\020E\000\020\014E\000p\013E\000p\021E\000\360\020E\000\020\014E\000p\013E\000`\nE\000\360\020E\000\020\014E\000p\013E\000`\nE\000p\005E\000\020\014E\000p\013E\000`\nE\000p\005E\000\340\010E\000p\013E\000`\nE\000p\005E\000\340\010E\000P\006E\000`\nE\000p\005E\000\340\010E\000P\006E\000@\010E\000p\005E\000\340\010E\000P\006E\000@\010E\0000\010E\000\340\010E\000P\006E\000@\010E\0000\010E\000\200\010E\000P\006E\000@\010E\0000\010E\000\200\010E\000\260\016E\000@\010E\0000\010E\000\200\010E\000\260\016E\0000\016E\0000\010E\000\200\010E\000\260\016E\0000\016E\000\000\020E\000\200\010E\000\260\016E\0000\016E\000\000\020E\000\020\017E\000\260\016E\0000\016E\000\000\020E\000\020\017E\000p\014E\0000\016E\000\000\020E\000\020\017E\000p\014E\000`\020E\000\000\020E\000\020\017E\000p\014E\000`\020E\0000\017E\000\020\017E\000p\014E\000`\020E\0000\017E\000 \021E\000p\014E\000`\020E\0000\017E\000 \021E\000\300\021E\000`\020E\0000\017E\000 \021E\000\300\021E\0000\022E\0000\017E\000 \021E\000\300\021E\0000\022E\000p\030E\000 \021E\000\300\021E\0000\022E\000p\030E\000`\030E\000\300\021E\0000\022E\000p\030E\000`\030E\000\360\032E\0000\022E\000p\030E\000`\030E\000\360\032E\000\200 E\000p\030E\000`\030E\000\360\032E\000\200 E\000\020#E\000`\030E\000\360\032E\000\200 E\000\020#E\000\320#E\000\360\032E\000\200 E\000\020#E\000\320#E\000\300!E\000\200 E\000\020#E\000\320#E\000\300!E\000\260(E\000\020#E\000\320#E\000\300!E\000\260(E\000\000+E\000\320#E\000\300!E\000\260(E\000\000+E\000P#E\000\300!E\000\260(E\000\000+E\000P#E\000\260%E\000\260(E\000\000+E\000P#E\000\260%E\000\260#E\000\000+E\000P#E\000\260%E\000\260#E\000\020(E\000P#E\000\260%E\000\260#E\000\020(E\000\220(E\000\260%E\000\260#E\000\020(E\000\220(E\000\000&E\000\260#E\000\020(E\000\220(E\000\000&E\000@%E\000\020(E\000\220(E\000\000&E\000@%E\000\360&E\000\220(E\000\000&E\000@%E\000\360&E\000\360)E\000\000&E\000@%E\000\360&E\000\360)E\000\240)E\000@%E\000\360&E\000\360)E\000\240)E\000\220*E\000\360&E\000\360)E\000\240)E\000\220*E\000\000)E\000\360)E\000\240)E\000\220*E\000\000)E\000\260(E\000\240)E\000\220*E\000\000)E\000\260(E\000\240/E\000\220*E\000\000)E\000\260(E\000\240/E\000`1E\000\000)E\000\260(E\000\240/E\000`1E\000\3200E\000\260(E\000\240/E\000`1E\000\3200E\000\240-E\000\240/E\000`1E\000\3200E\000\240-E\000\0200E\000`1E\000\3200E\000\240-E\000\0200E\000\3200E\000\3200E\000\240-E\000\0200E\000\3200E\000\220(E\000\240-E\000\0200E\000\3200E\000\220(E\0000&E\000\0200E\000\3200E\000\220(E\0000&E\000@\037E\000\3200E\000\220(E\0000&E\000@\037E\000\360 E\000\220(E\0000&E\000@\037E\000\360 E\000@ E\0000&E\000@\037E\000\360 E\000@ E\000\220!E\000@\037E\000\360 E\000@ E\000\220!E\000@\034E\000\360 E\000@ E\000\220!E\000@\034E\000`\036E\000@ E\000\220!E\000@\034E\000`\036E\000P\034E\000\220!E\000@\034E\000`\036E\000P\034E\000\340\025E\000@\034E\000`\036E\000P\034E\000\340\025E\000\360\030E\000`\036E\000P\034E\000\340\025E\000\360\030E\000\360\027E\000P\034E\000\340\025E\000\360\030E\000\360\027E\000\000\034E\000\340\025E\000\360\030E\000\360\027E\000\000\034E\000P\032E\000\360\030E\000\360\027E\000\000\034E\000P\032E\000\020\033E\000\360\027E\000\000\034E\000P\032E\000\020\033E\000p\033E\000\000\034E\000P\032E\000\020\033E\000p\033E\000\360\035E\000P\032E\000\020\033E\000p\033E\000\360\035E\000P\034E\000\020\033E\000p\033E\000\360\035E\000P\034E\000\000\035E\000p\033E\000\360\035E\000P\034E\000\000\035E\000\320\037E\000\360\035E\000P\034E\000\000\035E\000\320\037E\000 \"E\000P\034E\000\000\035E\000\320\037E\000 \"E\000\260#E\000\000\035E\000\320\037E\000 \"E\000\260#E\000 #E\000\320\037E\000 \"E\000\260#E\000 #E\000\000\'E\000 \"E\000\260#E\000 #E\000\000\'E\000@)E\000\260#E\000 #E\000\000\'E\000@)E\000\2200E\000 #E\000\000\'E\000@)E\000\2200E\000\300,E\000\000\'E\000@)E\000\2200E\000\300,E\000\360*E\000@)E\000\2200E\000\300,E\000\360*E\000\300+E\000\2200E\000\300,E\000\360*E\000\300+E\000\320&E\000\300,E\000\360*E\000\300+E\000\320&E\000p$E\000\360*E\000\300+E\000\320&E\000p$E\000@&E\000\300+E\000\320&E\000p$E\000@&E\000`+E\000\320&E\000p$E\000@&E\000`+E\000\220-E\000p$E\000@&E\000`+E\000\220-E\000\240-E\000@&E\000`+E\000\220-E\000\240-E\000\2603E\000`+E\000\220-E\000\240-E\000\2603E\000`1E\000\220-E\000\240-E\000\2603E\000`1E\000\3206E\000\240-E\000\2603E\000`1E\000\3206E\000\2606E\000\2603E\000`1E\000\3206E\000\2606E\000\0203E\000`1E\000\3206E\000\2606E\000\0203E\000`2E\000\3206E\000\2606E\000\0203E\000`2E\000\0203E\000\2606E\000\0203E\000`2E\000\0203E\000\2006E\000\0203E\000`2E\000\0203E\000\2006E\000\3407E\000`2E\000\0203E\000\2006E\000\3407E\000\2002E\000\0203E\000\2006E\000\3407E\000\2002E\000\220.E\000\2006E\000\3407E\000\2002E\000\220.E\000\2200E\000\3407E\000\2002E\000\220.E\000\2200E\000\360/E\000\2002E\000\220.E\000\2200E\000\360/E\000`+E\000\220.E\000\2200E\000\360/E\000`+E\000\200$E\000\2200E\000\360/E\000`+E\000\200$E\000 #E\000\360/E\000`+E\000\200$E\000 #E\000`&E\000`+E\000\200$E\000 #E\000`&E\000\000*E\000\200$E\000 #E\000`&E\000\000*E\000\000*E\000 #E\000`&E\000\000*E\000\000*E\000 2E\000`&E\000\000*E\000\000*E\000 2E\000\2000E\000\000*E\000\000*E\000 2E\000\2000E\000\3003E\000\000*E\000 2E\000\2000E\000\3003E\000\3002E\000 2E\000\2000E\000\3003E\000\3002E\000\2602E\000\2000E\000\3003E\000\3002E\000\2602E\000\360*E\000\3003E\000\3002E\000\2602E\000\360*E\000@.E\000\3002E\000\2602E\000\360*E\000@.E\000\3200E\000\2602E\000\360*E\000@.E\000\3200E\000\0001E\000\360*E\000@.E\000\3200E\000\0001E\000\3404E\000@.E\000\3200E\000\0001E\000\3404E\000p2E\000\3200E\000\0001E\000\3404E\000p2E\000@6E\000\0001E\000\3404E\000p2E\000@6E\000\2406E\000\3404E\000p2E\000@6E\000\2406E\000\3406E\000p2E\000@6E\000\2406E\000\3406E\000P9E\000@6E\000\2406E\000\3406E\000P9E\000\0009E\000\2406E\000\3406E\000P9E\000\0009E\000p1E\000\3406E\000P9E\000\0009E\000p1E\000\3402E\000P9E\000\0009E\000p1E\000\3402E\000\2207E\000\0009E\000p1E\000\3402E\000\2207E\000\300BE\000p1E\000\3402E\000\2207E\000\300BE\000`GE\000\3402E\000\2207E\000\300BE\000`GE\000\300<E\000\2207E\000\300BE\000`GE\000\300<E\000p>E\000\300BE\000`GE\000\300<E\000p>E\000`<E\000`GE\000\300<E\000p>E\000`<E\000\200;E\000\300<E\000p>E\000`<E\000\200;E\000\0209E\000p>E\000`<E\000\200;E\000\0209E\000\3608E\000`<E\000\200;E\000\0209E\000\3608E\000 6E\000\200;E\000\0209E\000\3608E\000 6E\000P6E\000\0209E\000\3608E\000 6E\000P6E\000`6E\000\3608E\000 6E\000P6E\000`6E\000\3605E\000 6E\000P6E\000`6E\000\3605E\000\2005E\000P6E\000`6E\000\3605E\000\2005E\000P6E\000`6E\000\3605E\000\2005E\000P6E\000\0201E\000\3605E\000\2005E\000P6E\000\0201E\000\3002E\000\2005E\000P6E\000\0201E\000\3002E\000\3401E\000P6E\000\0201E\000\3002E\000\3401E\00003E\000\0201E\000\3002E\000\3401E\00003E\000@6E\000\3002E\000\3401E\00003E\000@6E\000@4E\000\3401E\00003E\000@6E\000@4E\000\2004E\00003E\000@6E\000@4E\000\2004E\000p9E\000@6E\000@4E\000\2004E\000p9E\000P8E\000@4E\000\2004E\000p9E\000P8E\000\3206E\000\2004E\000p9E\000P8E\000\3206E\000\3203E\000p9E\000P8E\000\3206E\000\3203E\000\2004E\000P8E\000\3206E\000\3203E\000\2004E\000\360,E\000\3206E\000\3203E\000\2004E\000\360,E\000\200-E\000\3203E\000\2004E\000\360,E\000\200-E\000\340/E\000\2004E\000\360,E\000\200-E\000\340/E\000\340-E\000\360,E\000\200-E\000\340/E\000\340-E\000\240.E\000\200-E\000\340/E\000\340-E\000\240.E\000\3000E\000\340/E\000\340-E\000\240.E\000\3000E\000`.E\000\340-E\000\240.E\000\3000E\000`.E\000\320-E\000\240.E\000\3000E\000`.E\000\320-E\000\2602E\000\3000E\000`.E\000\320-E\000\2602E\000\0001E\000`.E\000\320-E\000\2602E\000\0001E\000\0201E\000\320-E\000\2602E\000\0001E\000\0201E\000P1E\000\2602E\000\0001E\000\0201E\000P1E\000\0001E\000\0001E\000\0201E\000P1E\000\0001E\000\240/E\000\0201E\000P1E\000\0001E\000\240/E\000\320-E\000P1E\000\0001E\000\240/E\000\320-E\000@.E\000\0001E\000\240/E\000\320-E\000@.E\000\2001E\000\240/E\000\320-E\000@.E\000\2001E\000\2407E\000\320-E\000@.E\000\2001E\000\2407E\000\260<E\000@.E\000\2001E\000\2407E\000\260<E\000 9E\000\2001E\000\2407E\000\260<E\000 9E\0000:E\000\2407E\000\260<E\000 9E\0000:E\000 7E\000\260<E\000 9E\0000:E\000 7E\000@6E\000 9E\0000:E\000 7E\000@6E\000\220:E\0000:E\000 7E\000@6E\000\220:E\000\000:E\000 7E\000@6E\000\220:E\000\000:E\000\2209E\000@6E\000\220:E\000\000:E\000\2209E\000 <E\000\220:E\000\000:E\000\2209E\000 <E\000 7E\000\000:E\000\2209E\000 <E\000 7E\000\260/E\000\2209E\000 <E\000 7E\000\260/E\000\2401E\000 <E\000 7E\000\260/E\000\2401E\000\320-E\000 7E\000\260/E\000\2401E\000\320-E\000\0001E\000\260/E\000\2401E\000\320-E\000\0001E\000p1E\000\2401E\000\320-E\000\0001E\000p1E\000P6E\000\320-E\000\0001E\000p1E\000P6E\000 5E\000\0001E\000p1E\000P6E\000 5E\000\0006E\000p1E\000P6E\000 5E\000\0006E\000\2204E\000P6E\000 5E\000\0006E\000\2204E\000\3207E\000 5E\000\0006E\000\2204E\000\3207E\00004E\000\0006E\000\2204E\000\3207E\00004E\000\3603E\000\2204E\000\3207E\00004E\000\3603E\000\300,E\000\3207E\00004E\000\3603E\000\300,E\000P/E\00004E\000\3603E\000\300,E\000P/E\000`,E\000\3603E\000\300,E\000P/E\000`,E\000\360*E\000\300,E\000P/E\000`,E\000\360*E\000\020.E\000P/E\000`,E\000\360*E\000\020.E\000`-E\000`,E\000\360*E\000\020.E\000`-E\000\200-E\000\360*E\000\020.E\000`-E\000\200-E\000\240+E\000\020.E\000`-E\000\200-E\000\240+E\000\320(E\000`-E\000\200-E\000\240+E\000\320(E\000p)E\000\200-E\000\240+E\000\320(E\000p)E\000 .E\000\240+E\000\320(E\000p)E\000 .E\000\240/E\000\320(E\000p)E\000 .E\000\240/E\000`.E\000p)E\000 .E\000\240/E\000`.E\000\200-E\000 .E\000\240/E\000`.E\000\200-E\000`,E\000\240/E\000`.E\000\200-E\000`,E\000 +E\000`.E\000\200-E\000`,E\000 +E\000P)E\000\200-E\000`,E\000 +E\000P)E\000P)E\000`,E\000 +E\000P)E\000P)E\000p\'E\000 +E\000P)E\000P)E\000p\'E\000\360(E\000P)E\000P)E\000p\'E\000\360(E\000\020)E\000P)E\000p\'E\000\360(E\000\020)E\000p,E\000p\'E\000\360(E\000\020)E\000p,E\000\2601E\000\360(E\000\020)E\000p,E\000\2601E\000`0E\000\020)E\000p,E\000\2601E\000`0E\000\0203E\000p,E\000\2601E\000`0E\000\0203E\000\0202E\000\2601E\000`0E\000\0203E\000\0202E\00003E\000`0E\000\0203E\000\0202E\00003E\000 3E\000\0203E\000\0202E\00003E\000 3E\000\3601E\000\0202E\00003E\000 3E\000\3601E\000\3601E\00003E\000 3E\000\3601E\000\3601E\000P1E\000 3E\000\3601E\000\3601E\000P1E\000\3003E\000\3601E\000\3601E\000P1E\000\3003E\000p4E\000\3601E\000P1E\000\3003E\000p4E\000\3401E\000P1E\000\3003E\000p4E\000\3401E\000\240/E\000\3003E\000p4E\000\3401E\000\240/E\0000/E\000p4E\000\3401E\000\240/E\0000/E\000\320/E\000\3401E\000\240/E\0000/E\000\320/E\000 0E\000\240/E\0000/E\000\320/E\000 0E\000\2001E\0000/E\000\320/E\000 0E\000\2001E\000P2E\000\320/E\000 0E\000\2001E\000P2E\000\2002E\000 0E\000\2001E\000P2E\000\2002E\000p2E\000\2001E\000P2E\000\2002E\000p2E\000\2602E\000P2E\000\2002E\000p2E\000\2602E\000`.E\000\2002E\000p2E\000\2602E\000`.E\000P/E\000p2E\000\2602E\000`.E\000P/E\000\3605E\000\2602E\000`.E\000P/E\000\3605E\000\2406E\000`.E\000P/E\000\3605E\000\2406E\000\3202E\000P/E\000\3605E\000\2406E\000\3202E\00002E\000\3605E\000\2406E\000\3202E\00002E\000\3604E\000\2406E\000\3202E\00002E\000\3604E\000 7E\000\3202E\00002E\000\3604E\000 7E\000 8E\00002E\000\3604E\000 7E\000 8E\000`;E\000\3604E\000 7E\000 8E\000`;E\000\2408E\000 7E\000 8E\000`;E\000\2408E\000\320:E\000 8E\000`;E\000\2408E\000\320:E\000p;E\000`;E\000\2408E\000\320:E\000p;E\000\2405E\000\2408E\000\320:E\000p;E\000\2405E\000`<E\000\320:E\000p;E\000\2405E\000`<E\000\360<E\000p;E\000\2405E\000`<E\000\360<E\000\320<E\000\2405E\000`<E\000\360<E\000\320<E\000\360;E\000`<E\000\360<E\000\320<E\000\360;E\000p=E\000\360<E\000\320<E\000\360;E\000p=E\000@?E\000\320<E\000\360;E\000p=E\000@?E\000@?E\000\360;E\000p=E\000@?E\000@?E\000@:E\000p=E\000@?E\000@?E\000@:E\00008E\000@?E\000@?E\000@:E\00008E\000`8E\000@?E\000@:E\00008E\000`8E\000\2407E\000@:E\00008E\000`8E\000\2407E\000P:E\00008E\000`8E\000\2407E\000P:E\000\360;E\000`8E\000\2407E\000P:E\000\360;E\000\260;E\000\2407E\000P:E\000\360;E\000\260;E\000 9E\000P:E\000\360;E\000\260;E\000 9E\000P9E\000\360;E\000\260;E\000 9E\000P9E\000p8E\000\260;E\000 9E\000P9E\000p8E\000\0008E\000 9E\000P9E\000p8E\000\0008E\000\3209E\000P9E\000p8E\000\0008E\000\3209E\000\2209E\000p8E\000\0008E\000\3209E\000\2209E\000\000<E\000\0008E\000\3209E\000\2209E\000\000<E\000@;E\000\3209E\000\2209E\000\000<E\000@;E\000\300:E\000\2209E\000\000<E\000@;E\000\300:E\000\300<E\000\000<E\000@;E\000\300:E\000\300<E\000\220=E\000@;E\000\300:E\000\300<E\000\220=E\000\200=E\000\300:E\000\300<E\000\220=E\000\200=E\000 ?E\000\300<E\000\220=E\000\200=E\000 ?E\000\300:E\000\220=E\000\200=E\000 ?E\000\300:E\000 9E\000\200=E\000 ?E\000\300:E\000 9E\000\220:E\000 ?E\000\300:E\000 9E\000\220:E\000\2608E\000\300:E\000 9E\000\220:E\000\2608E\000P3E\000 9E\000\220:E\000\2608E\000P3E\000\0204E\000\220:E\000\2608E\000P3E\000\0204E\000`4E\000\2608E\000P3E\000\0204E\000`4E\000\2005E\000P3E\000\0204E\000`4E\000\2005E\000\3405E\000\0204E\000`4E\000\2005E\000\3405E\000`3E\000`4E\000\2005E\000\3405E\000`3E\000P4E\000\2005E\000\3405E\000`3E\000P4E\000`3E\000\3405E\000`3E\000P4E\000`3E\000`3E\000`3E\000P4E\000`3E\000`3E\000\2601E\000P4E\000`3E\000`3E\000\2601E\000@2E\000`3E\000`3E\000\2601E\000@2E\000p/E\000`3E\000\2601E\000@2E\000p/E\000@.E\000\2601E\000@2E\000p/E\000@.E\000\020*E\000@2E\000p/E\000@.E\000\020*E\000\240(E\000p/E\000@.E\000\020*E\000\240(E\000`+E\000@.E\000\020*E\000\240(E\000`+E\000\340)E\000\020*E\000\240(E\000`+E\000\340)E\000\240*E\000\240(E\000`+E\000\340)E\000\240*E\000@,E\000`+E\000\340)E\000\240*E\000@,E\000`,E\000\340)E\000\240*E\000@,E\000`,E\000`+E\000\240*E\000@,E\000`,E\000`+E\000\300-E\000@,E\000`,E\000`+E\000\300-E\000\200-E\000`,E\000`+E\000\300-E\000\200-E\000\320/E\000`+E\000\300-E\000\200-E\000\320/E\000@3E\000\300-E\000\200-E\000\320/E\000@3E\000`2E\000\200-E\000\320/E\000@3E\000`2E\000\0001E\000\320/E\000@3E\000`2E\000\0001E\000\340/E\000@3E\000`2E\000\0001E\000\340/E\00002E\000`2E\000\0001E\000\340/E\00002E\000P0E\000\0001E\000\340/E\00002E\000P0E\000\3600E\000\340/E\00002E\000P0E\000\3600E\000\360-E\00002E\000P0E\000\3600E\000\360-E\000\220-E\000P0E\000\3600E\000\360-E\000\220-E\000\320.E\000\3600E\000\360-E\000\220-E\000\320.E\000\240.E\000\360-E\000\220-E\000\320.E\000\240.E\0000.E\000\220-E\000\320.E\000\240.E\0000.E\000\000.E\000\320.E\000\240.E\0000.E\000\000.E\000\320+E\000\240.E\0000.E\000\000.E\000\320+E\000\320+E\0000.E\000\000.E\000\320+E\000\320+E\000\200.E\000\000.E\000\320+E\000\320+E\000\200.E\000\340.E\000\320+E\000\320+E\000\200.E\000\340.E\000`.E\000\320+E\000\200.E\000\340.E\000`.E\000\0201E\000\200.E\000\340.E\000`.E\000\0201E\000\3000E\000\340.E\000`.E\000\0201E\000\3000E\000\2600E\000`.E\000\0201E\000\3000E\000\2600E\000\320/E\000\0201E\000\3000E\000\2600E\000\320/E\000\2000E\000\3000E\000\2600E\000\320/E\000\2000E\000\340/E\000\2600E\000\320/E\000\2000E\000\340/E\000\0001E\000\320/E\000\2000E\000\340/E\000\0001E\000\3001E\000\2000E\000\340/E\000\0001E\000\3001E\000\0202E\000\340/E\000\0001E\000\3001E\000\0202E\000 0E\000\0001E\000\3001E\000\0202E\000 0E\000\3400E\000\3001E\000\0202E\000 0E\000\3400E\000p0E\000\0202E\000 0E\000\3400E\000p0E\000\2001E\000 0E\000\3400E\000p0E\000\2001E\000\2400E\000\3400E\000p0E\000\2001E\000\2400E\000\3200E\000p0E\000\2001E\000\2400E\000\3200E\000P2E\000\2001E\000\2400E\000\3200E\000P2E\000`3E\000\2400E\000\3200E\000P2E\000`3E\00003E\000\3200E\000P2E\000`3E\00003E\000\3602E\000P2E\000`3E\00003E\000\3602E\000\0204E\000`3E\00003E\000\3602E\000\0204E\000P2E\00003E\000\3602E\000\0204E\000P2E\000\0205E\000\3602E\000\0204E\000P2E\000\0205E\000\3004E\000\0204E\000P2E\000\0205E\000\3004E\000\3204E\000P2E\000\0205E\000\3004E\000\3204E\000p6E\000\0205E\000\3004E\000\3204E\000p6E\000\2207E\000\3004E\000\3204E\000p6E\000\2207E\000 7E\000\3204E\000p6E\000\2207E\000 7E\000p5E\000p6E\000\2207E\000 7E\000p5E\000p5E\000\2207E\000 7E\000p5E\000p5E\000\0008E\000 7E\000p5E\000p5E\000\0008E\000\2006E\000p5E\000p5E\000\0008E\000\2006E\000\2207E\000p5E\000\0008E\000\2006E\000\2207E\000\3004E\000\0008E\000\2006E\000\2207E\000\3004E\000`2E\000\2006E\000\2207E\000\3004E\000`2E\000 5E\000\2207E\000\3004E\000`2E\000 5E\000\0204E\000\3004E\000`2E\000 5E\000\0204E\000\3605E\000`2E\000 5E\000\0204E\000\3605E\000 6E\000 5E\000\0204E\000\3605E\000 6E\000@4E\000\0204E\000\3605E\000 6E\000@4E\000`1E\000\3605E\000 6E\000@4E\000`1E\000p2E\000 6E\000@4E\000`1E\000p2E\00001E\000@4E\000`1E\000p2E\00001E\000p1E\000`1E\000p2E\00001E\000p1E\000\3401E\000p2E\00001E\000p1E\000\3401E\000@2E\00001E\000p1E\000\3401E\000@2E\000p0E\000p1E\000\3401E\000@2E\000p0E\000 1E\000\3401E\000@2E\000p0E\000 1E\000`1E\000@2E\000p0E\000 1E\000`1E\000\3000E\000p0E\000 1E\000`1E\000\3000E\000\300.E\000 1E\000`1E\000\3000E\000\300.E\000\200.E\000`1E\000\3000E\000\300.E\000\200.E\000\340.E\000\3000E\000\300.E\000\200.E\000\340.E\000P/E\000\300.E\000\200.E\000\340.E\000P/E\000 0E\000\200.E\000\340.E\000P/E\000 0E\0000-E\000\340.E\000P/E\000 0E\0000-E\000p-E\000P/E\000 0E\0000-E\000p-E\000\320,E\000 0E\0000-E\000p-E\000\320,E\000\320,E\0000-E\000p-E\000\320,E\000\320,E\000\000,E\000p-E\000\320,E\000\320,E\000\000,E\000\220-E\000\320,E\000\320,E\000\000,E\000\220-E\000\240.E\000\320,E\000\000,E\000\220-E\000\240.E\000`2E\000\000,E\000\220-E\000\240.E\000`2E\000\0002E\000\220-E\000\240.E\000`2E\000\0002E\000\3401E\000\240.E\000`2E\000\0002E\000\3401E\000\2001E\000`2E\000\0002E\000\3401E\000\2001E\000\3600E\000\0002E\000\3401E\000\2001E\000\3600E\000\3200E\000\3401E\000\2001E\000\3600E\000\3200E\000\3600E\000\2001E\000\3600E\000\3200E\000\3600E\000\300/E\000\3600E\000\3200E\000\3600E\000\300/E\000\340/E\000\3200E\000\3600E\000\300/E\000\340/E\000\0001E\000\3600E\000\300/E\000\340/E\000\0001E\000\2000E\000\300/E\000\340/E\000\0001E\000\2000E\000\3400E\000\340/E\000\0001E\000\2000E\000\3400E\000\0201E\000\0001E\000\2000E\000\3400E\000\0201E\000 3E\000\2000E\000\3400E\000\0201E\000 3E\00005E\000\3400E\000\0201E\000 3E\00005E\000p4E\000\0201E\000 3E\00005E\000p4E\000@4E\000 3E\00005E\000p4E\000@4E\000\2604E\00005E\000p4E\000@4E\000\2604E\000 5E\000p4E\000@4E\000\2604E\000 5E\000 8E\000@4E\000\2604E\000 5E\000 8E\000\0007E\000\2604E\000 5E\000 8E\000\0007E\000\3605E\000 5E\000 8E\000\0007E\000\3605E\000\2605E\000 8E\000\0007E\000\3605E\000\2605E\000\2005E\000\0007E\000\3605E\000\2605E\000\2005E\000\3205E\000\3605E\000\2605E\000\2005E\000\3205E\000\3406E\000\2605E\000\2005E\000\3205E\000\3406E\000\2203E\000\2005E\000\3205E\000\3406E\000\2203E\000\0205E\000\3205E\000\3406E\000\2203E\000\0205E\000\2206E\000\3406E\000\2203E\000\0205E\000\2206E\000\2008E\000\2203E\000\0205E\000\2206E\000\2008E\000 =E\000\0205E\000\2206E\000\2008E\000 =E\000\300;E\000\2206E\000\2008E\000 =E\000\300;E\000P<E\000\2008E\000 =E\000\300;E\000P<E\000\2409E\000 =E\000\300;E\000P<E\000\2409E\000\360;E\000\300;E\000P<E\000\2409E\000\360;E\000\360=E\000P<E\000\2409E\000\360;E\000\360=E\000\320;E\000\2409E\000\360;E\000\360=E\000\320;E\000P;E\000\360;E\000\360=E\000\320;E\000P;E\000\240;E\000\360=E\000\320;E\000P;E\000\240;E\000\260>E\000\320;E\000P;E\000\240;E\000\260>E\000\320>E\000P;E\000\240;E\000\260>E\000\320>E\000 >E\000\240;E\000\260>E\000\320>E\000 >E\000@=E\000\260>E\000\320>E\000 >E\000@=E\000\320<E\000\320>E\000 >E\000@=E\000\320<E\000\2209E\000 >E\000@=E\000\320<E\000\2209E\000\220:E\000@=E\000\320<E\000\2209E\000\220:E\000p9E\000\320<E\000\2209E\000\220:E\000p9E\000p8E\000\2209E\000\220:E\000p9E\000p8E\000\3409E\000\220:E\000p9E\000p8E\000\3409E\000\200;E\000p9E\000p8E\000\3409E\000\200;E\000\020=E\000p8E\000\3409E\000\200;E\000\020=E\000\3609E\000\3409E\000\200;E\000\020=E\000\3609E\000\220:E\000\200;E\000\020=E\000\3609E\000\220:E\000\200:E\000\020=E\000\3609E\000\220:E\000\200:E\0000=E\000\3609E\000\220:E\000\200:E\0000=E\000\020?E\000\220:E\000\200:E\0000=E\000\020?E\000\020AE\000\200:E\0000=E\000\020?E\000\020AE\000\320?E\0000=E\000\020?E\000\020AE\000\320?E\000 >E\000\020?E\000\020AE\000\320?E\000 >E\000@>E\000\020AE\000\320?E\000 >E\000@>E\000\220>E\000\320?E\000 >E\000@>E\000\220>E\000`>E\000 >E\000@>E\000\220>E\000`>E\000PAE\000@>E\000\220>E\000`>E\000PAE\000 BE\000\220>E\000`>E\000PAE\000 BE\000`BE\000`>E\000PAE\000 BE\000`BE\000\340IE\000PAE\000 BE\000`BE\000\340IE\000\360JE\000 BE\000`BE\000\340IE\000\360JE\000\360JE\000`BE\000\340IE\000\360JE\000\360JE\0000ME\000\340IE\000\360JE\000\360JE\0000ME\000`NE\000\360JE\000\360JE\0000ME\000`NE\000\260IE\000\360JE\0000ME\000`NE\000\260IE\000\240KE\0000ME\000`NE\000\260IE\000\240KE\000\240KE\000`NE\000\260IE\000\240KE\000\240KE\000\000GE\000\260IE\000\240KE\000\240KE\000\000GE\000\200PE\000\240KE\000\240KE\000\000GE\000\200PE\000\360SE\000\240KE\000\000GE\000\200PE\000\360SE\000PUE\000\000GE\000\200PE\000\360SE\000PUE\000\020UE\000\200PE\000\360SE\000PUE\000\020UE\000\240UE\000\360SE\000PUE\000\020UE\000\240UE\000\220TE\000PUE\000\020UE\000\240UE\000\220TE\000pUE\000\020UE\000\240UE\000\220TE\000pUE\0000UE\000\240UE\000\220TE\000pUE\0000UE\000\240UE\000\220TE\000pUE\0000UE\000\240UE\000 TE\000pUE\0000UE\000\240UE\000 TE\000pWE\0000UE\000\240UE\000 TE\000pWE\000\220SE\000\240UE\000 TE\000pWE\000\220SE\000\240OE\000 TE\000pWE\000\220SE\000\240OE\000\240SE\000pWE\000\220SE\000\240OE\000\240SE\000\320PE\000\220SE\000\240OE\000\240SE\000\320PE\000\300TE\000\240OE\000\240SE\000\320PE\000\300TE\000\200RE\000\240SE\000\320PE\000\300TE\000\200RE\000\300PE\000\320PE\000\300TE\000\200RE\000\300PE\000\200SE\000\300TE\000\200RE\000\300PE\000\200SE\000\220YE\000\200RE\000\300PE\000\200SE\000\220YE\000\000ZE\000\300PE\000\200SE\000\220YE\000\000ZE\000\360ZE\000\200SE\000\220YE\000\000ZE\000\360ZE\000p[E\000\220YE\000\000ZE\000\360ZE\000p[E\000\260ZE\000\000ZE\000\360ZE\000p[E\000\260ZE\000\000SE\000\360ZE\000p[E\000\260ZE\000\000SE\000 SE\000p[E\000\260ZE\000\000SE\000 SE\0000QE\000\260ZE\000\000SE\000 SE\0000QE\000\340IE\000\000SE\000 SE\0000QE\000\340IE\000\240JE\000 SE\0000QE\000\340IE\000\240JE\000`KE\0000QE\000\340IE\000\240JE\000`KE\000\200HE\000\340IE\000\240JE\000`KE\000\200HE\000\000IE\000\240JE\000`KE\000\200HE\000\000IE\000\300KE\000`KE\000\200HE\000\000IE\000\300KE\000\020KE\000\200HE\000\000IE\000\300KE\000\020KE\000`HE\000\000IE\000\300KE\000\020KE\000`HE\000pHE\000\300KE\000\020KE\000`HE\000pHE\000\260GE\000\020KE\000`HE\000pHE\000\260GE\000 IE\000`HE\000pHE\000\260GE\000 IE\000\200KE\000pHE\000\260GE\000 IE\000\200KE\000\020LE\000\260GE\000 IE\000\200KE\000\020LE\000\020ME\000 IE\000\200KE\000\020LE\000\020ME\0000ME\000\200KE\000\020LE\000\020ME\0000ME\000`JE\000\020LE\000\020ME\0000ME\000`JE\000\320KE\000\020ME\0000ME\000`JE\000\320KE\000\240KE\0000ME\000`JE\000\320KE\000\240KE\000\300ME\000`JE\000\320KE\000\240KE\000\300ME\000@QE\000\320KE\000\240KE\000\300ME\000@QE\000\200NE\000\240KE\000\300ME\000@QE\000\200NE\000\340OE\000\300ME\000@QE\000\200NE\000\340OE\000\240PE\000@QE\000\200NE\000\340OE\000\240PE\000\000QE\000\200NE\000\340OE\000\240PE\000\000QE\000 RE\000\340OE\000\240PE\000\000QE\000 RE\000@QE\000\240PE\000\000QE\000 RE\000@QE\000\260RE\000\000QE\000 RE\000@QE\000\260RE\000pTE\000 RE\000@QE\000\260RE\000pTE\000\240SE\000@QE\000\260RE\000pTE\000\240SE\000\220UE\000\260RE\000pTE\000\240SE\000\220UE\000\220SE\000pTE\000\240SE\000\220UE\000\220SE\000\320UE\000\240SE\000\220UE\000\220SE\000\320UE\000\000WE\000\220UE\000\220SE\000\320UE\000\000WE\000\200VE\000\220SE\000\320UE\000\000WE\000\200VE\000\240SE\000\320UE\000\000WE\000\200VE\000\240SE\000\000VE\000\000WE\000\200VE\000\240SE\000\000VE\000\020RE\000\200VE\000\240SE\000\000VE\000\020RE\000\340SE\000\240SE\000\000VE\000\020RE\000\340SE\000\320TE\000\000VE\000\020RE\000\340SE\000\320TE\000\260TE\000\020RE\000\340SE\000\320TE\000\260TE\000\000XE\000\340SE\000\320TE\000\260TE\000\000XE\000\220ZE\000\320TE\000\260TE\000\000XE\000\220ZE\000\260\\E\000\260TE\000\000XE\000\220ZE\000\260\\E\000 ]E\000\000XE\000\220ZE\000\260\\E\000 ]E\000`\\E\000\220ZE\000\260\\E\000 ]E\000`\\E\0000ZE\000\260\\E\000 ]E\000`\\E\0000ZE\000\360YE\000 ]E\000`\\E\0000ZE\000\360YE\0000\\E\000`\\E\0000ZE\000\360YE\0000\\E\000\000YE\0000ZE\000\360YE\0000\\E\000\000YE\000\260UE\000\360YE\0000\\E\000\000YE\000\260UE\000\360WE\0000\\E\000\000YE\000\260UE\000\360WE\000\300WE\000\000YE\000\260UE\000\360WE\000\300WE\000\300YE\000\260UE\000\360WE\000\300WE\000\300YE\000\300[E\000\360WE\000\300WE\000\300YE\000\300[E\000\200^E\000\300WE\000\300YE\000\300[E\000\200^E\000\220]E\000\300YE\000\300[E\000\200^E\000\220]E\000p]E\000\300[E\000\200^E\000\220]E\000p]E\000P]E\000\200^E\000\220]E\000p]E\000P]E\000\340YE\000\220]E\000p]E\000P]E\000\340YE\000PXE\000p]E\000P]E\000\340YE\000PXE\000\340VE\000P]E\000\340YE\000PXE\000\340VE\000 XE\000\340YE\000PXE\000\340VE\000 XE\000`WE\000PXE\000\340VE\000 XE\000`WE\000\300YE\000\340VE\000 XE\000`WE\000\300YE\000\200RE\000 XE\000`WE\000\300YE\000\200RE\000\340NE\000`WE\000\300YE\000\200RE\000\340NE\000\000RE\000\300YE\000\200RE\000\340NE\000\000RE\000\340TE\000\200RE\000\340NE\000\000RE\000\340TE\000PUE\000\340NE\000\000RE\000\340TE\000PUE\000\320WE\000\000RE\000\340TE\000PUE\000\320WE\000\220VE\000\340TE\000PUE\000\320WE\000\220VE\000\300WE\000PUE\000\320WE\000\220VE\000\300WE\000PWE\000\320WE\000\220VE\000\300WE\000PWE\000\020TE\000\220VE\000\300WE\000PWE\000\020TE\000\320SE\000\300WE\000PWE\000\020TE\000\320SE\000 QE\000PWE\000\020TE\000\320SE\000 QE\0000QE\000\020TE\000\320SE\000 QE\0000QE\0000OE\000\320SE\000 QE\0000QE\0000OE\000\260PE\000 QE\0000QE\0000OE\000\260PE\000\200LE\0000QE\0000OE\000\260PE\000\200LE\000PME\0000OE\000\260PE\000\200LE\000PME\000\220NE\000\260PE\000\200LE\000PME\000\220NE\0000PE\000\200LE\000PME\000\220NE\0000PE\000 PE\000PME\000\220NE\0000PE\000 PE\000`SE\000\220NE\0000PE\000 PE\000`SE\000\340QE\0000PE\000 PE\000`SE\000\340QE\000pTE\000 PE\000`SE\000\340QE\000pTE\000\000TE\000`SE\000\340QE\000pTE\000\000TE\000\300TE\000\340QE\000pTE\000\000TE\000\300TE\000\340TE\000pTE\000\000TE\000\300TE\000\340TE\000 UE\000\000TE\000\300TE\000\340TE\000 UE\0000VE\000\300TE\000\340TE\000 UE\0000VE\0000VE\000\340TE\000 UE\0000VE\0000VE\000\360UE\000 UE\0000VE\0000VE\000\360UE\000`UE\0000VE\0000VE\000\360UE\000`UE\000\360VE\0000VE\000\360UE\000`UE\000\360VE\000\240SE\000\360UE\000`UE\000\360VE\000\240SE\000\000SE\000`UE\000\360VE\000\240SE\000\000SE\000\000QE\000\360VE\000\240SE\000\000SE\000\000QE\000\240PE\000\240SE\000\000SE\000\000QE\000\240PE\000 QE\000\000SE\000\000QE\000\240PE\000 QE\000\300PE\000\000QE\000\240PE\000 QE\000\300PE\000\340RE\000\240PE\000 QE\000\300PE\000\340RE\000PRE\000 QE\000\300PE\000\340RE\000PRE\000\000TE\000\300PE\000\340RE\000PRE\000\000TE\000\260SE\000\340RE\000PRE\000\000TE\000\260SE\000\360QE\000PRE\000\000TE\000\260SE\000\360QE\000\000RE\000\000TE\000\260SE\000\360QE\000\000RE\000\320SE\000\260SE\000\360QE\000\000RE\000\320SE\000@OE\000\360QE\000\000RE\000\320SE\000@OE\000\340PE\000\000RE\000\320SE\000@OE\000\340PE\000\240OE\000\320SE\000@OE\000\340PE\000\240OE\000\000PE\000@OE\000\340PE\000\240OE\000\000PE\000\360LE\000\340PE\000\240OE\000\000PE\000\360LE\000\300ME\000\240OE\000\000PE\000\360LE\000\300ME\000\340NE\000\000PE\000\360LE\000\300ME\000\340NE\000\340ME\000\360LE\000\300ME\000\340NE\000\340ME\000 ME\000\300ME\000\340NE\000\340ME\000 ME\000\260OE\000\340NE\000\340ME\000 ME\000\260OE\000\340NE\000\340ME\000 ME\000\260OE\000\340NE\000`LE\000 ME\000\260OE\000\340NE\000`LE\000\300LE\000\260OE\000\340NE\000`LE\000\300LE\000pNE\000\340NE\000`LE\000\300LE\000pNE\000\000QE\000`LE\000\300LE\000pNE\000\000QE\000`PE\000\300LE\000pNE\000\000QE\000`PE\000\000QE\000pNE\000\000QE\000`PE\000\000QE\000pPE\000\000QE\000`PE\000\000QE\000pPE\000 RE\000`PE\000\000QE\000pPE\000 RE\000\360QE\000\000QE\000pPE\000 RE\000\360QE\000\020RE\000pPE\000 RE\000\360QE\000\020RE\000\020QE\000 RE\000\360QE\000\020RE\000\020QE\000@QE\000\360QE\000\020RE\000\020QE\000@QE\000@SE\000\020RE\000\020QE\000@QE\000@SE\000pTE\000\020QE\000@QE\000@SE\000pTE\000`RE\000@QE\000@SE\000pTE\000`RE\0000RE\000@SE\000pTE\000`RE\0000RE\000`RE\000pTE\000`RE\0000RE\000`RE\000\340QE\000`RE\0000RE\000`RE\000\340QE\000\340RE\0000RE\000`RE\000\340QE\000\340RE\000\360RE\000`RE\000\340QE\000\340RE\000\360RE\0000RE\000\340QE\000\340RE\000\360RE\0000RE\000\000QE\000\340RE\000\360RE\0000RE\000\000QE\000\000OE\000\360RE\0000RE\000\000QE\000\000OE\000\260NE\0000RE\000\000QE\000\000OE\000\260NE\000@OE\000\000QE\000\000OE\000\260NE\000@OE\000@OE\000\000OE\000\260NE\000@OE\000@OE\000\340NE\000\260NE\000@OE\000@OE\000\340NE\000\320OE\000@OE\000@OE\000\340NE\000\320OE\000\360LE\000@OE\000\340NE\000\320OE\000\360LE\000\200ME\000\340NE\000\320OE\000\360LE\000\200ME\0000OE\000\320OE\000\360LE\000\200ME\0000OE\000\300OE\000\360LE\000\200ME\0000OE\000\300OE\000\200NE\000\200ME\0000OE\000\300OE\000\200NE\000 OE\0000OE\000\300OE\000\200NE\000 OE\000pNE\000\300OE\000\200NE\000 OE\000pNE\000\300ME\000\200NE\000 OE\000pNE\000\300ME\000\240KE\000 OE\000pNE\000\300ME\000\240KE\000@ME\000pNE\000\300ME\000\240KE\000@ME\000@NE\000\300ME\000\240KE\000@ME\000@NE\000pME\000\240KE\000@ME\000@NE\000pME\000\360QE\000@ME\000@NE\000pME\000\360QE\000@SE\000@NE\000pME\000\360QE\000@SE\000\220SE\000pME\000\360QE\000@SE\000\220SE\000\300RE\000\360QE\000@SE\000\220SE\000\300RE\000\320SE\000@SE\000\220SE\000\300RE\000\320SE\000\020TE\000\220SE\000\300RE\000\320SE\000\020TE\000\020UE\000\300RE\000\320SE\000\020TE\000\020UE\000\320TE\000\320SE\000\020TE\000\020UE\000\320TE\000\020RE\000\020TE\000\020UE\000\320TE\000\020RE\000\000TE\000\020UE\000\320TE\000\020RE\000\000TE\000PVE\000\320TE\000\020RE\000\000TE\000PVE\000\240TE\000\020RE\000\000TE\000PVE\000\240TE\000\360RE\000\000TE\000PVE\000\240TE\000\360RE\000 TE\000PVE\000\240TE\000\360RE\000 TE\000\320RE\000\240TE\000\360RE\000 TE\000\320RE\000\320RE\000\360RE\000 TE\000\320RE\000\320RE\000\340PE\000 TE\000\320RE\000\320RE\000\340PE\000\000LE\000\320RE\000\320RE\000\340PE\000\000LE\000@KE\000\320RE\000\340PE\000\000LE\000@KE\000\240IE\000\340PE\000\000LE\000@KE\000\240IE\000\300KE\000\000LE\000@KE\000\240IE\000\300KE\000\320LE\000@KE\000\240IE\000\300KE\000\320LE\000 ME\000\240IE\000\300KE\000\320LE\000 ME\000\300NE\000\300KE\000\320LE\000 ME\000\300NE\000\200ME\000\320LE\000 ME\000\300NE\000\200ME\000\260NE\000 ME\000\300NE\000\200ME\000\260NE\000\260NE\000\300NE\000\200ME\000\260NE\000\260NE\000\240NE\000\200ME\000\260NE\000\260NE\000\240NE\000\360OE\000\260NE\000\260NE\000\240NE\000\360OE\000\220RE\000\260NE\000\240NE\000\360OE\000\220RE\000\260QE\000\240NE\000\360OE\000\220RE\000\260QE\000PQE\000\360OE\000\220RE\000\260QE\000PQE\000\220PE\000\220RE\000\260QE\000PQE\000\220PE\000\200UE\000\260QE\000PQE\000\220PE\000\200UE\000\000UE\000PQE\000\220PE\000\200UE\000\000UE\000\360UE\000\220PE\000\200UE\000\000UE\000\360UE\000\360TE\000\200UE\000\000UE\000\360UE\000\360TE\000\340TE\000\000UE\000\360UE\000\360TE\000\340TE\000\200TE\000\360UE\000\360TE\000\340TE\000\200TE\000 SE\000\360TE\000\340TE\000\200TE\000 SE\000\240TE\000\340TE\000\200TE\000 SE\000\240TE\000\320RE\000\200TE\000 SE\000\240TE\000\320RE\000\220SE\000 SE\000\240TE\000\320RE\000\220SE\000`OE\000\240TE\000\320RE\000\220SE\000`OE\000\320LE\000\320RE\000\220SE\000`OE\000\320LE\000@ME\000\220SE\000`OE\000\320LE\000@ME\000`LE\000`OE\000\320LE\000@ME\000`LE\000PIE\000\320LE\000@ME\000`LE\000PIE\000 JE\000@ME\000`LE\000PIE\000 JE\000\300IE\000`LE\000PIE\000 JE\000\300IE\000\240EE\000PIE\000 JE\000\300IE\000\240EE\000p@E\000 JE\000\300IE\000\240EE\000p@E\000@<E\000\300IE\000\240EE\000p@E\000@<E\000\240@E\000\240EE\000p@E\000@<E\000\240@E\000\020>E\000p@E\000@<E\000\240@E\000\020>E\000\260:E\000@<E\000\240@E\000\020>E\000\260:E\000`=E\000\240@E\000\020>E\000\260:E\000`=E\000\2408E\000\020>E\000\260:E\000`=E\000\2408E\000\0207E\000\260:E\000`=E\000\2408E\000\0207E\000 <E\000`=E\000\2408E\000\0207E\000 <E\000\020=E\000\2408E\000\0207E\000 <E\000\020=E\000\200>E\000\0207E\000 <E\000\020=E\000\200>E\000 >E\000 <E\000\020=E\000\200>E\000 >E\000\300:E\000\020=E\000\200>E\000 >E\000\300:E\000\360;E\000\200>E\000 >E\000\300:E\000\360;E\000\3608E\000 >E\000\300:E\000\360;E\000\3608E\000\340;E\000\300:E\000\360;E\000\3608E\000\340;E\0000=E\000\360;E\000\3608E\000\340;E\0000=E\000\320<E\000\3608E\000\340;E\0000=E\000\320<E\000\240<E\000\340;E\0000=E\000\320<E\000\240<E\000\020>E\0000=E\000\320<E\000\240<E\000\020>E\000\200<E\000\320<E\000\240<E\000\020>E\000\200<E\000\2409E\000\240<E\000\020>E\000\200<E\000\2409E\000\3209E\000\020>E\000\200<E\000\2409E\000\3209E\000\000;E\000\200<E\000\2409E\000\3209E\000\000;E\000`9E\000\2409E\000\3209E\000\000;E\000`9E\000@;E\000\3209E\000\000;E\000`9E\000@;E\000\2009E\000\000;E\000`9E\000@;E\000\2009E\000\2208E\000`9E\000@;E\000\2009E\000\2208E\000P8E\000@;E\000\2009E\000\2208E\000P8E\000\3004E\000\2009E\000\2208E\000P8E\000\3004E\000\2404E\000\2208E\000P8E\000\3004E\000\2404E\00006E\000P8E\000\3004E\000\2404E\00006E\000\3005E\000\3004E\000\2404E\00006E\000\3005E\000p4E\000\2404E\00006E\000\3005E\000p4E\000\2204E\00006E\000\3005E\000p4E\000\2204E\000\3602E\000\3005E\000p4E\000\2204E\000\3602E\000 2E\000p4E\000\2204E\000\3602E\000 2E\000\000/E\000\2204E\000\3602E\000 2E\000\000/E\000\260.E\000\3602E\000 2E\000\000/E\000\260.E\000`,E\000 2E\000\000/E\000\260.E\000`,E\000P,E\000\000/E\000\260.E\000`,E\000P,E\000\320-E\000\260.E\000`,E\000P,E\000\320-E\000\240.E\000`,E\000P,E\000\320-E\000\240.E\0000-E\000P,E\000\320-E\000\240.E\0000-E\000\3400E\000\320-E\000\240.E\0000-E\000\3400E\000\0000E\000\240.E\0000-E\000\3400E\000\0000E\000\200.E\0000-E\000\3400E\000\0000E\000\200.E\000\200/E\000\3400E\000\0000E\000\200.E\000\200/E\000\200.E\000\0000E\000\200.E\000\200/E\000\200.E\000\0001E\000\200.E\000\200/E\000\200.E\000\0001E\000P.E\000\200/E\000\200.E\000\0001E\000P.E\0000.E\000\200.E\000\0001E\000P.E\0000.E\000\000/E\000\0001E\000P.E\0000.E\000\000/E\000\320/E\000P.E\0000.E\000\000/E\000\320/E\000\0001E\0000.E\000\000/E\000\320/E\000\0001E\000P3E\000\000/E\000\320/E\000\0001E\000P3E\000\0203E\000\320/E\000\0001E\000P3E\000\0203E\000\2402E\000\0001E\000P3E\000\0203E\000\2402E\000\3203E\000P3E\000\0203E\000\2402E\000\3203E\000\3004E\000\0203E\000\2402E\000\3203E\000\3004E\00004E\000\2402E\000\3203E\000\3004E\00004E\000@4E\000\3203E\000\3004E\00004E\000@4E\000@8E\000\3004E\00004E\000@4E\000@8E\000\0008E\00004E\000@4E\000@8E\000\0008E\000p8E\000@4E\000@8E\000\0008E\000p8E\000\2409E\000@8E\000\0008E\000p8E\000\2409E\00009E\000\0008E\000p8E\000\2409E\00009E\00008E\000p8E\000\2409E\00009E\00008E\000\3407E\000\2409E\00009E\00008E\000\3407E\000p:E\00009E\00008E\000\3407E\000p:E\000\000:E\00008E\000\3407E\000p:E\000\000:E\00008E\000\3407E\000p:E\000\000:E\00008E\000\0206E\000p:E\000\000:E\00008E\000\0206E\000\2203E\000\000:E\00008E\000\0206E\000\2203E\000\3205E\00008E\000\0206E\000\2203E\000\3205E\000\3204E\000\0206E\000\2203E\000\3205E\000\3204E\000\0006E\000\2203E\000\3205E\000\3204E\000\0006E\000P8E\000\3205E\000\3204E\000\0006E\000P8E\000\3008E\000\3204E\000\0006E\000P8E\000\3008E\000\3607E\000\0006E\000P8E\000\3008E\000\3607E\000\2409E\000P8E\000\3008E\000\3607E\000\2409E\000\3609E\000\3008E\000\3607E\000\2409E\000\3609E\000\2609E\000\3607E\000\2409E\000\3609E\000\2609E\000\200=E\000\2409E\000\3609E\000\2609E\000\200=E\000p<E\000\3609E\000\2609E\000\200=E\000p<E\000\340=E\000\2609E\000\200=E\000p<E\000\340=E\000\220<E\000\200=E\000p<E\000\340=E\000\220<E\000\200:E\000p<E\000\340=E\000\220<E\000\200:E\000\240<E\000\340=E\000\220<E\000\200:E\000\240<E\000P=E\000\220<E\000\200:E\000\240<E\000P=E\000\020=E\000\200:E\000\240<E\000P=E\000\020=E\000\020=E\000\240<E\000P=E\000\020=E\000\020=E\000\260?E\000P=E\000\020=E\000\020=E\000\260?E\000\000@E\000\020=E\000\020=E\000\260?E\000\000@E\000\240@E\000\020=E\000\260?E\000\000@E\000\240@E\000\300?E\000\260?E\000\000@E\000\240@E\000\300?E\000P@E\000\000@E\000\240@E\000\300?E\000P@E\000`@E\000\240@E\000\300?E\000P@E\000`@E\000 BE\000\300?E\000P@E\000`@E\000 BE\000\360CE\000P@E\000`@E\000 BE\000\360CE\000 DE\000`@E\000 BE\000\360CE\000 DE\000\320BE\000 BE\000\360CE\000 DE\000\320BE\000`EE\000\360CE\000 DE\000\320BE\000`EE\000\000GE\000 DE\000\320BE\000`EE\000\000GE\000\320FE\000\320BE\000`EE\000\000GE\000\320FE\000`EE\000`EE\000\000GE\000\320FE\000`EE\000@DE\000\000GE\000\320FE\000`EE\000@DE\000\220GE\000\320FE\000`EE\000@DE\000\220GE\000`FE\000`EE\000@DE\000\220GE\000`FE\000 GE\000@DE\000\220GE\000`FE\000 GE\000@HE\000\220GE\000`FE\000 GE\000@HE\000\220HE\000`FE\000 GE\000@HE\000\220HE\000@HE\000 GE\000@HE\000\220HE\000@HE\000\340HE\000@HE\000\220HE\000@HE\000\340HE\000 FE\000\220HE\000@HE\000\340HE\000 FE\000\000FE\000@HE\000\340HE\000 FE\000\000FE\000\300FE\000\340HE\000 FE\000\000FE\000\300FE\000\200JE\000 FE\000\000FE\000\300FE\000\200JE\000\300KE\000\000FE\000\300FE\000\200JE\000\300KE\000\360LE\000\300FE\000\200JE\000\300KE\000\360LE\000\320LE\000\200JE\000\300KE\000\360LE\000\320LE\000 LE\000\300KE\000\360LE\000\320LE\000 LE\000\300JE\000\360LE\000\320LE\000 LE\000\300JE\000\200SE\000\320LE\000 LE\000\300JE\000\200SE\000\200TE\000 LE\000\300JE\000\200SE\000\200TE\000\000TE\000\300JE\000\200SE\000\200TE\000\000TE\000\220TE\000\200SE\000\200TE\000\000TE\000\220TE\000`QE\000\200TE\000\000TE\000\220TE\000`QE\000\300QE\000\000TE\000\220TE\000`QE\000\300QE\000`SE\000\220TE\000`QE\000\300QE\000`SE\0000QE\000`QE\000\300QE\000`SE\0000QE\000\200SE\000\300QE\000`SE\0000QE\000\200SE\000pQE\000`SE\0000QE\000\200SE\000pQE\000\300QE\0000QE\000\200SE\000pQE\000\300QE\000PNE\000\200SE\000pQE\000\300QE\000PNE\000\320PE\000pQE\000\300QE\000PNE\000\320PE\000@PE\000\300QE\000PNE\000\320PE\000@PE\000@QE\000PNE\000\320PE\000@PE\000@QE\000\220OE\000\320PE\000@PE\000@QE\000\220OE\000\360UE\000@PE\000@QE\000\220OE\000\360UE\000\260QE\000@QE\000\220OE\000\360UE\000\260QE\000\240UE\000\220OE\000\360UE\000\260QE\000\240UE\000\360QE\000\360UE\000\260QE\000\240UE\000\360QE\000\020UE\000\260QE\000\240UE\000\360QE\000\020UE\000\340ME\000\240UE\000\360QE\000\020UE\000\340ME\000\240JE\000\360QE\000\020UE\000\340ME\000\240JE\000\020LE\000\020UE\000\340ME\000\240JE\000\020LE\000\240IE\000\340ME\000\240JE\000\020LE\000\240IE\000\340BE\000\240JE\000\020LE\000\240IE\000\340BE\000\340CE\000\020LE\000\240IE\000\340BE\000\340CE\000\240@E\000\240IE\000\340BE\000\340CE\000\240@E\000\240DE\000\340BE\000\340CE\000\240@E\000\240DE\000\220CE\000\340CE\000\240@E\000\240DE\000\220CE\000\000EE\000\240@E\000\240DE\000\220CE\000\000EE\000\020DE\000\240DE\000\220CE\000\000EE\000\020DE\000p@E\000\220CE\000\000EE\000\020DE\000p@E\000\320BE\000\000EE\000\020DE\000p@E\000\320BE\0000BE\000\020DE\000p@E\000\320BE\0000BE\000\020DE\000p@E\000\320BE\0000BE\000\020DE\000`FE\000\320BE\0000BE\000\020DE\000`FE\000@EE\0000BE\000\020DE\000`FE\000@EE\000\220DE\000\020DE\000`FE\000@EE\000\220DE\000@BE\000`FE\000@EE\000\220DE\000@BE\000\240@E\000@EE\000\220DE\000@BE\000\240@E\000PDE\000\220DE\000@BE\000\240@E\000PDE\000\260FE\000@BE\000\240@E\000PDE\000\260FE\000\220HE\000\240@E\000PDE\000\260FE\000\220HE\000pIE\000PDE\000\260FE\000\220HE\000pIE\000`NE\000\260FE\000\220HE\000pIE\000`NE\000\360ME\000\220HE\000pIE\000`NE\000\360ME\0000LE\000pIE\000`NE\000\360ME\0000LE\000\200IE\000`NE\000\360ME\0000LE\000\200IE\000\000LE\000\360ME\0000LE\000\200IE\000\000LE\0000LE\0000LE\000\200IE\000\000LE\0000LE\000\020RE\000\200IE\000\000LE\0000LE\000\020RE\000\200UE\000\000LE\0000LE\000\020RE\000\200UE\000\220UE\0000LE\000\020RE\000\200UE\000\220UE\0000ZE\000\020RE\000\200UE\000\220UE\0000ZE\000\300ZE\000\200UE\000\220UE\0000ZE\000\300ZE\000\320YE\000\220UE\0000ZE\000\300ZE\000\320YE\000\340WE\0000ZE\000\300ZE\000\320YE\000\340WE\000\260YE\000\300ZE\000\320YE\000\340WE\000\260YE\000\340XE\000\320YE\000\340WE\000\260YE\000\340XE\0000ZE\000\340WE\000\260YE\000\340XE\0000ZE\000\000^E\000\260YE\000\340XE\0000ZE\000\000^E\000 cE\000\340XE\0000ZE\000\000^E\000 cE\000PbE\0000ZE\000\000^E\000 cE\000PbE\000\200jE\000\000^E\000 cE\000PbE\000\200jE\0000jE\000 cE\000PbE\000\200jE\0000jE\000\220hE\000PbE\000\200jE\0000jE\000\220hE\000@eE\000\200jE\0000jE\000\220hE\000@eE\000\260kE\0000jE\000\220hE\000@eE\000\260kE\000\220rE\000\220hE\000@eE\000\260kE\000\220rE\000\340oE\000@eE\000\260kE\000\220rE\000\340oE\0000sE\000\260kE\000\220rE\000\340oE\0000sE\000\220vE\000\220rE\000\340oE\0000sE\000\220vE\000\320yE\000\340oE\0000sE\000\220vE\000\320yE\000\220wE\0000sE\000\220vE\000\320yE\000\220wE\000\360lE\000\220vE\000\320yE\000\220wE\000\360lE\000\000jE\000\320yE\000\220wE\000\360lE\000\000jE\000\260lE\000\220wE\000\360lE\000\000jE\000\260lE\000PnE\000\360lE\000\000jE\000\260lE\000PnE\000\220uE\000\000jE\000\260lE\000PnE\000\220uE\0000zE\000\260lE\000PnE\000\220uE\0000zE\000`xE\000PnE\000\220uE\0000zE\000`xE\000\000wE\000\220uE\0000zE\000`xE\000\000wE\000`uE\0000zE\000`xE\000\000wE\000`uE\000\320qE\000`xE\000\000wE\000`uE\000\320qE\000\200tE\000\000wE\000`uE\000\320qE\000\200tE\000\260oE\000`uE\000\320qE\000\200tE\000\260oE\000PqE\000\320qE\000\200tE\000\260oE\000PqE\000\020uE\000\200tE\000\260oE\000PqE\000\020uE\000\300qE\000\260oE\000PqE\000\020uE\000\300qE\000\340qE\000PqE\000\020uE\000\300qE\000\340qE\000puE\000\020uE\000\300qE\000\340qE\000puE\000\000sE\000\300qE\000\340qE\000puE\000\000sE\000\300sE\000\340qE\000puE\000\000sE\000\300sE\000@wE\000puE\000\000sE\000\300sE\000@wE\000\200\177E\000\000sE\000\300sE\000@wE\000\200\177E\0000\201E\000\300sE\000@wE\000\200\177E\0000\201E\000\020\201E\000@wE\000\200\177E\0000\201E\000\020\201E\000\330\202E\000\200\177E\0000\201E\000\020\201E\000\330\202E\000h\204E\0000\201E\000\020\201E\000\330\202E\000h\204E\000P\203E\000\020\201E\000\330\202E\000h\204E\000P\203E\000 \205E\000\330\202E\000h\204E\000P\203E\000 \205E\0000\205E\000h\204E\000P\203E\000 \205E\0000\205E\000X\204E\000P\203E\000 \205E\0000\205E\000X\204E\000\250\207E\000 \205E\0000\205E\000X\204E\000\250\207E\000p\210E\0000\205E\000X\204E\000\250\207E\000p\210E\000\300\206E\000X\204E\000\250\207E\000p\210E\000\300\206E\000h\204E\000\250\207E\000p\210E\000\300\206E\000h\204E\000\240\203E\000p\210E\000\300\206E\000h\204E\000\240\203E\000p\204E\000\300\206E\000h\204E\000\240\203E\000p\204E\000P\202E\000h\204E\000\240\203E\000p\204E\000P\202E\000H\203E\000\240\203E\000p\204E\000P\202E\000H\203E\000\330\203E\000p\204E\000P\202E\000H\203E\000\330\203E\000\310\204E\000P\202E\000H\203E\000\330\203E\000\310\204E\0000\177E\000H\203E\000\330\203E\000\310\204E\0000\177E\000 zE\000\330\203E\000\310\204E\0000\177E\000 zE\000\200|E\000\310\204E\0000\177E\000 zE\000\200|E\000P|E\0000\177E\000 zE\000\200|E\000P|E\000\320zE\000 zE\000\200|E\000P|E\000\320zE\000\220wE\000\200|E\000P|E\000\320zE\000\220wE\000\000zE\000P|E\000\320zE\000\220wE\000\000zE\000\020xE\000\320zE\000\220wE\000\000zE\000\020xE\000 xE\000\220wE\000\000zE\000\020xE\000 xE\000\000yE\000\000zE\000\020xE\000 xE\000\000yE\000`rE\000\020xE\000 xE\000\000yE\000`rE\000\220sE\000 xE\000\000yE\000`rE\000\220sE\000\260oE\000\000yE\000`rE\000\220sE\000\260oE\000\360oE\000`rE\000\220sE\000\260oE\000\360oE\000`lE\000\220sE\000\260oE\000\360oE\000`lE\000@fE\000\260oE\000\360oE\000`lE\000@fE\000\020hE\000\360oE\000`lE\000@fE\000\020hE\000\000hE\000`lE\000@fE\000\020hE\000\000hE\000\220kE\000@fE\000\020hE\000\000hE\000\220kE\000\220lE\000\020hE\000\000hE\000\220kE\000\220lE\000@oE\000\000hE\000\220kE\000\220lE\000@oE\000`jE\000\220kE\000\220lE\000@oE\000`jE\000\020nE\000\220lE\000@oE\000`jE\000\020nE\000\340lE\000@oE\000`jE\000\020nE\000\340lE\000@mE\000`jE\000\020nE\000\340lE\000@mE\000\300iE\000\020nE\000\340lE\000@mE\000\300iE\000\020jE\000\340lE\000@mE\000\300iE\000\020jE\000\200kE\000@mE\000\300iE\000\020jE\000\200kE\000PpE\000\300iE\000\020jE\000\200kE\000PpE\000\000nE\000\020jE\000\200kE\000PpE\000\000nE\000pkE\000\200kE\000PpE\000\000nE\000pkE\000\240VE\000PpE\000\000nE\000pkE\000\240VE\000`kE\000\000nE\000pkE\000\240VE\000`kE\000\020kE\000pkE\000\240VE\000`kE\000\020kE\000PiE\000\240VE\000`kE\000\020kE\000PiE\000\300`E\000`kE\000\020kE\000PiE\000\300`E\000\260FE\000\020kE\000PiE\000\300`E\000\260FE\000\340HE\000PiE\000\300`E\000\260FE\000\340HE\000PDE\000\300`E\000\260FE\000\340HE\000PDE\000\320CE\000\260FE\000\340HE\000PDE\000\320CE\000`FE\000\340HE\000PDE\000\320CE\000`FE\000`DE\000PDE\000\320CE\000`FE\000`DE\000pGE\000\320CE\000`FE\000`DE\000pGE\000@GE\000`FE\000`DE\000pGE\000@GE\000 JE\000`DE\000pGE\000@GE\000 JE\000\300HE\000pGE\000@GE\000 JE\000\300HE\000\200IE\000@GE\000 JE\000\300HE\000\200IE\000\220KE\000 JE\000\300HE\000\200IE\000\220KE\000PKE\000\300HE\000\200IE\000\220KE\000PKE\000\360IE\000\200IE\000\220KE\000PKE\000\360IE\000PME\000\220KE\000PKE\000\360IE\000PME\000\300LE\000PKE\000\360IE\000PME\000\300LE\000pNE\000\360IE\000PME\000\300LE\000pNE\000\200QE\000PME\000\300LE\000pNE\000\200QE\000`TE\000\300LE\000pNE\000\200QE\000`TE\000\360RE\000pNE\000\200QE\000`TE\000\360RE\000PUE\000\200QE\000`TE\000\360RE\000PUE\000\360SE\000`TE\000\360RE\000PUE\000\360SE\000\020TE\000\360RE\000PUE\000\360SE\000\020TE\000\000XE\000PUE\000\360SE\000\020TE\000\000XE\000\220ZE\000\360SE\000\020TE\000\000XE\000\220ZE\000\260XE\000\020TE\000\000XE\000\220ZE\000\260XE\000\260UE\000\000XE\000\220ZE\000\260XE\000\260UE\000\340QE\000\220ZE\000\260XE\000\260UE\000\340QE\0000QE\000\260XE\000\260UE\000\340QE\0000QE\000PQE\000\260UE\000\340QE\0000QE\000PQE\000`OE\000\340QE\0000QE\000PQE\000`OE\000PPE\0000QE\000PQE\000`OE\000PPE\000\200RE\000PQE\000`OE\000PPE\000\200RE\000\200PE\000`OE\000PPE\000\200RE\000\200PE\000\300LE\000PPE\000\200RE\000\200PE\000\300LE\000\000KE\000\200RE\000\200PE\000\300LE\000\000KE\0000LE\000\200PE\000\300LE\000\000KE\0000LE\000\260ME\000\300LE\000\000KE\0000LE\000\260ME\000\200LE\000\000KE\0000LE\000\260ME\000\200LE\000@LE\0000LE\000\260ME\000\200LE\000@LE\000\240KE\000\260ME\000\200LE\000@LE\000\240KE\000\020RE\000\200LE\000@LE\000\240KE\000\020RE\000\200RE\000@LE\000\240KE\000\020RE\000\200RE\000\320TE\000\240KE\000\020RE\000\200RE\000\320TE\000PSE\000\020RE\000\200RE\000\320TE\000PSE\000\000SE\000\200RE\000\320TE\000PSE\000\000SE\000\300SE\000\320TE\000PSE\000\000SE\000\300SE\000 VE\000PSE\000\000SE\000\300SE\000 VE\000\200VE\000\000SE\000\300SE\000 VE\000\200VE\000\340QE\000\300SE\000 VE\000\200VE\000\340QE\000pSE\000 VE\000\200VE\000\340QE\000pSE\000PVE\000\200VE\000\340QE\000pSE\000PVE\000\260UE\000\340QE\000pSE\000PVE\000\260UE\000\300YE\000pSE\000PVE\000\260UE\000\300YE\000@[E\000PVE\000\260UE\000\300YE\000@[E\000\020\\E\000\260UE\000\300YE\000@[E\000\020\\E\000\360ZE\000\300YE\000@[E\000\020\\E\000\360ZE\000\200[E\000@[E\000\020\\E\000\360ZE\000\200[E\000\300\\E\000\020\\E\000\360ZE\000\200[E\000\300\\E\000\360[E\000\360ZE\000\200[E\000\300\\E\000\360[E\000\340RE\000\200[E\000\300\\E\000\360[E\000\340RE\000`ME\000\300\\E\000\360[E\000\340RE\000`ME\000\260NE\000\360[E\000\340RE\000`ME\000\260NE\000\000QE\000\340RE\000`ME\000\260NE\000\000QE\000pQE\000`ME\000\260NE\000\000QE\000pQE\000\300WE\000\260NE\000\000QE\000pQE\000\300WE\000\000RE\000\000QE\000pQE\000\300WE\000\000RE\000POE\000pQE\000\300WE\000\000RE\000POE\000\220PE\000\300WE\000\000RE\000POE\000\220PE\000PQE\000\000RE\000POE\000\220PE\000PQE\000\300SE\000POE\000\220PE\000PQE\000\300SE\000PRE\000\220PE\000PQE\000\300SE\000PRE\000PUE\000PQE\000\300SE\000PRE\000PUE\000`TE\000\300SE\000PRE\000PUE\000`TE\000\240TE\000PRE\000PUE\000`TE\000\240TE\000\340UE\000PUE\000`TE\000\240TE\000\340UE\000\260SE\000`TE\000\240TE\000\340UE\000\260SE\000\360PE\000\240TE\000\340UE\000\260SE\000\360PE\000\360PE\000\340UE\000\260SE\000\360PE\000\360PE\000\220LE\000\260SE\000\360PE\000\360PE\000\220LE\000\200ME\000\360PE\000\360PE\000\220LE\000\200ME\000 HE\000\360PE\000\220LE\000\200ME\000 HE\000\240HE\000\220LE\000\200ME\000 HE\000\240HE\000PKE\000\200ME\000 HE\000\240HE\000PKE\0000ME\000 HE\000\240HE\000PKE\0000ME\0000LE\000\240HE\000PKE\0000ME\0000LE\000\240KE\000PKE\0000ME\0000LE\000\240KE\000\260LE\0000ME\0000LE\000\240KE\000\260LE\000\260ME\0000LE\000\240KE\000\260LE\000\260ME\000PME\000\240KE\000\260LE\000\260ME\000PME\000\320IE\000\260LE\000\260ME\000PME\000\320IE\000\260GE\000\260ME\000PME\000\320IE\000\260GE\000PHE\000PME\000\320IE\000\260GE\000PHE\000\240CE\000\320IE\000\260GE\000PHE\000\240CE\000\220BE\000\260GE\000PHE\000\240CE\000\220BE\000\240BE\000PHE\000\240CE\000\220BE\000\240BE\000 DE\000\240CE\000\220BE\000\240BE\000 DE\000\240BE\000\220BE\000\240BE\000 DE\000\240BE\000PEE\000\240BE\000 DE\000\240BE\000PEE\000\320CE\000 DE\000\240BE\000PEE\000\320CE\000 DE\000\240BE\000PEE\000\320CE\000 DE\000\360EE\000PEE\000\320CE\000 DE\000\360EE\000\300GE\000\320CE\000 DE\000\360EE\000\300GE\000 GE\000 DE\000\360EE\000\300GE\000 GE\000pDE\000\360EE\000\300GE\000 GE\000pDE\0000EE\000\300GE\000 GE\000pDE\0000EE\0000BE\000 